node {
  name: "FirstLayer_input"
  op: "Placeholder"
  attr {
    key: "dtype"
    value {
      type: DT_FLOAT
    }
  }
  attr {
    key: "shape"
    value {
      shape {
        dim {
          size: -1
        }
        dim {
          size: 9
        }
      }
    }
  }
}
node {
  name: "sequential/FirstLayer/MatMul/ReadVariableOp/resource"
  op: "Const"
  attr {
    key: "dtype"
    value {
      type: DT_FLOAT
    }
  }
  attr {
    key: "value"
    value {
      tensor {
        dtype: DT_FLOAT
        tensor_shape {
          dim {
            size: 9
          }
          dim {
            size: 128
          }
        }
        tensor_content: "\r\242\215>I\2020?\215\341\200\276\360O\005\277\226\355H>\367\005\365\273\326qZ\2774m\022\276^\266\256\276s\363]?\270\257\216>\304\207@?S\000\254>\356HM>a\302\373>-ov\275$t.?\0275D?\375k]\276\210\266[?\274z.?F\310\n\275\227*L\277\376\236\303>\354\t\376=q.\206?\232>\271\276s\300G>D2\357=\2752<\277\375\304\222>q=\034\277&\001\021?~oW?]\215;\277\372f\210?\373\262\325\275\005\037$\276\327\030\177\276\035\032\211\276kM7;\374\204\347\274F\310c?\024\2077>\035\311\261>|R\272\276\326wo>B\023C>\001\032l?\356\345C=s\255]\277\337\357\330>T\360\036?\335\263\'?\326Z\004?\326\033\253=\360Fl;\270\003\024?\3559\330=\310\246\177?\"t\246>3\364\311>E\203\315>\256\313~\276\017\2135?Ul\t\276\365{\306\275\311jg\276Y\307M<<\311\033\277t\322\354\272Y\030\300\276\347\276\235\276\006H\005\276\326\020\354=2\\\024\276\240i\242\275\217\250?\276S>\300>+\226c\276\274\253\r\2773\013\344>\324\017\264=c\007&>m\300_\277\270\3400?\353\367j\276\022\346R?\242\351/\276\251,\301\276v\270\207\276<\211!\277\263)\"\277\006\234\002\275\266\037\315\276\203\362(\276\323\365\205?<\201D?\227\353\234\276\027m<?\n\315&\277Gt\352\276\013\262\341\276N\265\266=T:9:;\215t>\337\035<\277\375\262\311>\251]\004\2773\200\202\277\032E\276\276,\"\352\274=\300\331=\256\307\001\277\276\236[\275\326\251?>\0254\005\274\022\2060\277?\343\307>m\371\321\276\360\256[?\247\215\325>\027\216\272\275\017\271\341>o\234l\276l\231\276>W\275\005?\260\240\201=\375\277%?Q\007\022\2770\336/=f^\023\277\246\312\266\276\231\327\020=\355N\246=\361P.>_\305Q>aN\264\276\000\311\t\277M\014\374=\326\356a?#\240u\275x-\273\276o\325\003?|\035\"?\260\202\223>C\357#?]\324\013=\010\351T?.\037\343>\'\031j=\363zK\2760A$\273}sE?\365Qh>PX>\277\024\004x?\340\277\307>3\351 \277.%.\275>\241\316>f\210\261\2768\306\216>\332Z\360\276\20710\277\210M\213=\317\277\207\275\"\326\013\277\331`\212=\227\256\036?\030\204\026?\244\352\254\276N\\\033\277\223\313\357=Y\204\010>OS\344>\350\365\300\276\202\322r\277\261/\253>>\270\013\277r\030>\277\257\367\376>2j\274>~Y\250\276-\323\031?\357Z\014\277r\367\024>H\201\212>\222\335\034?dh\037\2767\217O>*K(\277 *\321\276~\316\005?\373w\354\276O\0265?\214\022\221>\343\302\303>\360\":?\374H\221>\275d\021?\300\207\207\275\200Q\201>\370\035\227>R\275`\277\206\037T\275\276\232\373\276\361\210`\2770\331\260>`i\"<v|l\274a\020S?\353>Z\275\341\267M>\260\320W\277\3528\232<\315\373\262\276:\\\025?Q4\232\276\304\270G\277\366\302\256>\374\244\241=\225Ag?h\263\304\276\204\265\363=j\035\017?N\314\305>>*\r\276W\214\334>f\263@?\020$\014>\0004$\277\300wE\276\353;\202?\351\327.>&E\"\277\022<s=i\264$\277kz0\277Aj\225\276|\026F>1j<>VK\240\276!\002\'\277\256\233\237<s\334 ?#3\370>\007D~?\363\243\357\272\351\275\021>\242\006x\275Z\036j\275\264\3300\275\276eX?A\233<?o\321b>\344\032\030>o\004\013?-;\231>\355J\216=\327#\236\275%\204c\277\200\256:\276n\345\236?[r\243>\2337\300\2756\357\r\277M(\351<\"\016\214\274%M8>E\363\">\223\374\344=\307\020\245=^q\245>c\"\236=\322\217\224\276\266\250\221\276*\307y\277P{\304\276\363\233~\277v\206\265=\234\254K\276\313e\202\276\344\001\373>\224\305\234=\313\021M?\203\306\035?e\367\247\276\3206\322>\316a\263=\030\036\376>\302\265\207\276\322?\351>M\310\357\275\330\255\177?\317m\215\275\265M\245>\353\"\205\276?F\007\277B ;>t\336\271?\335\3744\276>\250\023>\021` \277\025\221\361\275f\266\202?p\205\270\276Q|\275\275\'O\010\273\371\t\025>\302\211\322=\3715\321=\261Z*\275C\341\004?K.]\276\271u\035?\226#\302\275B\377\356\275\257\361L>|O\322\275Nn\373>\203O\221>\233\023\t\277XL\332=\216\237\321<\0315\300\276\273\302\252?\324\352\316\276\030\257J?\3410e\275\362\323u\276\263\336\251<\203\311V\277\221\371\235\276{\032\372=\357\277\220\275\335O`\276\363\026+\277A\005A\277\216\033\326:\254\031\016?\251_0\276\337i\206\276+HQ?{\246\"\275\210\266\262\275S\027\215=\363sk\276\206\333l\277\263\177\027?\tEW?b\032\311\275@]\316=(-=?H\352o>)-\200?T\216\306>\255|\006?\267\002\"\277A\024\201\277\032\367\215>\243\0220>\014\013T?Pk\033?^\017&>\022\036\337>\303P\365>2\333\350\276y)\003>B\236\334\275\243\227\252\276\342x\"\275\224\2338\277\265\313.<Uw\014?\373\350\333>\226\245 \276XN\204\275\26721>\247\275S\277\304\022+\277\316\233^\277j\274)=\265\333\206\276\306(\340>\201\263B\276s\240\317>C\252\r=\212\211\220>Fl-?_\203u>^\233p\277\344\200\363\276\357\276!>n\354\035\276#F!>\346#\004\274\306\246\264>\023\n/\277<S>?\364\r\034?)}R\276\212R\320=e\242r\277(R\203\277\252\034\215>\333\027\202>I\303\027\276\367\377\264\275\372\252\243=\r\377\307\276^X\030\276\024\312-\277\342CA\277\356\2779\273\357\010+?\250\276\355\276\217\370}?\001\nh\276\275\031\201<E\367\\=\365\274\324<\251E\031\276\365_\231>\220Cn>\302\221\267=\010\3709\276\220v\237>\213\275\325>\314\337U\277YX+\277\232L\363\274\360\267\025?\027\203u?\2775\331\276\3357\276>=G\220\276\2347\275>i\217c?8\215\300\276h,\201\276^\361H?\275\273\254\274NX5\276\3741\001\277H\374\217\276m{7>\252\264I\276\260{\302\276`\032L\277\202;\014?\217/\225\277\326z\217\275\357:,\277\\\002\373>\002\326\220\275`\350\002>\371\274\241>\253\261\274\275\216\354\260>KE\r>`N\036\275\264\3045>\345\177?\276\032\214\210?_\027\313\276\262\243&?B\2464\276\033\276\374>2\351\362\276\351\365\355>]\375\365=\026!\275\276\356\200\357\275\0329->\211\310Q?\205\342\334\276)\201\271\275\315\021\272>*0g\277r\313+\277@\310\210?\352G\270\276\005\311\037?ZO\000\277\253\032\322\276f8\025?!1\241=\376v\312\276\236\200f?\027\245\\\276\361\322(?[\273S?T\203\035?9y&\276:\010\036\277\022\301F\276X\255N=\330}\021?YX\n\276\373\nb?\267\250t?\230\004\036\277\322\310V\277o\302&\276\037\252\005\277Sx(\276\354\177\211\276\206\301?\277\355\377k\277\322\3331\277\244y\216>\356\364\234>m\027\236\276<}~\276mp2?\371\253\203\275\332\364\223\276\307\265\026\277\375=\323>\345S\035\277-\002b>\003\342-?\335b|?\032H\216=\225 \237>\031\216u=\030\313J<\227\235%\277\365\271\354>\253\'\316=\027-\010?f\345\332\276hN_>\277\343!?\3126\301\276\210\306\030\277g\2730\276\314\221\350>z\251\220\276\325\207\037\277\204[I?xq\247\275+\\!?y\r\013\277@\352\336>\272B\204?t\230\360\276\323>B\275:n%>6\304g\276Z\221\377\276\231p\213>\313\322\327\276\tE\000\2771\243\325\275\272\202\t\276\006\363\364=\261jV?\021\305\254\276|\251\361>\207\367\246\276\021\025\036\275{#\023\277\350\302\330>\341\377\264\275\'\263W>\234\001\305\276N\0373\277\343\212V>\303\337\206>N\211\353>k\231\025\277\n\002\306>\246\255&\277\357\216M\275\306\330\372\275.\214\027\277\326K\226\276\304\002\007\277\272\341\"\276|\037\273\275\352\263\351\276\232\275T\276\213\2527?\032wh\277\003\354\260>t\254H\277|\216\353\275\325\267\004\277\016\304\217\276l\374\211\276 A\026\277\201S\334\276n\247\331\2744!$\276\367EZ\277\270\251\211\276SA<\277\211\253z\276\377\3432=(\013H\273\216\002\302\276\306\t\333>\316\242\223\276X\377\205=0\352u\277\247\016\027?\203\255\030\277cM<\276\353N\321>\256V.\276\300;\364>_l\302\276W\302\202\273\253\214%\277]\332\270\275\213\3700>\265\264\t?G\251\344\275\212\206\200>i\321\024<>\233\021=\264\"[>#\365\325=r+\025?\331\254L\277\006g\247>g\224j?\350W\r\277\374\212\037\276\342\256<\276a\365#?\246\2537>\235\362\212>\260\245\027?V\227\007?H\316\372>=\377&\276z\261u>\342\213\277\276\000\202^\276\'\0326\277\376f;\275\275\333q\276\001\023Q\277\026\332\r\277\003\032$?>P\215\277\2031H>\342\267\032\277\376\325\003\277t`\203>+\370\'>\005\336\332\276}\250T=\342\347g\275\313A\327\275\355\230\253\276\374z\272=\346\255\265>\331\307\004\2770y5\276\023\270y=\277\0352\276N\241@?\3335\374\276!\305\204>\nn\301>8\262\010\277\227\331\005?H\312/?\240B\300\276\313\221W=R\257i>c\337\240\276{\035D?\226\376\307=\266\017N>\301\3539\277\370\030\325\276\035C\373\2764.X\277X\324\022\2778\017\255>rY\221\276\277\252\036?\311\274\312\276\337\264\256\276a\257|>N\031\305=\322V\300\276~u6?\216\272.\277W=b>\230+K\277\354C\323\276\265\252(\276\302B\273>\230$\013\277\017o)>\211%\214>\330q ?\2732\003\277;\221\'>N\220\002?\315%\022?@Y\240\276\023\266w>\335\273\357\276\337\220\217\276\315\310\367\276\362)\364\276v`\361>]\r\203\276n\233\325>FgH:l\335s?\204\014\002\277R\241d\276\3608\264>\215\210\350>w\364\355>!\361X\277\304C\337\275\334%\013\274\264\314\032?\350~\262<\366f\310>L\332i\276#\365\\\276\240\217\033\277E7|?x\343\255>\036B\354\276\324\224\n\276^&\322=\'\026\034\277-\341\277>\335\264q\277:\371\374\276\223iV?p\321\035>Ev9?\214g`>|)0=\253t\242\275\361\265\205\276})\332\276#\360i>\251\376K?\260\303\321>\214\211\014\277\232\276\034\277:\342y\275h7\t<\300H\032\277\017i\303>L\350\215>Y\323c\276|\377$>\006m\254\276\303d\244>\013\342T\277\353\017\374\275e\267\036?H\036->F\227\216>\016,f?\222]\030\276\025\031\263>\214\330\002?\000\004\322\275\334\005\315>\3504\227\276=\304%\276C\221\001>z!-\275k\335\354>\320\246*\277\323\257b\276\000\247\004?v\'\243\276m\347\222>\\\274+\277\224N2?Q+p>\004-\013\277\211s\021\276IR\340>\032\212\004\277\335\337\264>\335\226\037\276\233{c\2770\005\260>\355\342\247<v\347W=\224\312.?\017K\214\276lnp\277\234\265l\277i\323]\276)(\002\277\006U1?I\274\266\276\263-`=\270\266T?\342\217*?;\357!\277\032\342Z\276\273\220\333\276 \337T\277\331\364J<\315\377Z?o\311t\277?\255\366=f\375\264\276\'\371\332>\0021n\277x\017\304>\242~\343\276\324\017f\277\305~\n\277\353\234[\276Y\2455?\350\321+\276\253\237\352>}\0054>M\010\353=\367\026\263\275\032-\253\276#\006\234>\315\202\236\276\334\215\250\276\240\372\226>\0265\036?\312\216\006\277\356\326\026?\231\004~\275\244\013\031\277\361\300\243\275h\0350?k\361\024\277\035D\032?\t\372\330\275\3229\200>\250\340\334=\205]s\275Q\337[\276\353\242\324>\324=\320\276,/Y?8\240C\277F#h\276\017\n.\277\224\005.\276l\020\010>\206|\321=\350\220 \276\265\203\245\275\302,\r\277Z\344T\277\302\346\233>\346\250M<E8\310\276k2\r\277NTS>\243m\217\276\317\004\010\276b\275l\277~\003`?n\343\306<\010\306\320=\241\007R?\024\367<>\322\270\217\276\203\341\340>i\257\231\276(\013h?\307Q\314>1L\277\2756\027\246>uk\246>\271\0228\276\277\017 ?\257J\300\276{\326R>\364\263\004?\306\007\021?HV9?\332\025\025?\265$,>\253\357}>\032\007\035\276r[\303\276KK\022?y1\"\276-\272\212>K\211\302\276J\271\375>\377\243\020?Wu-\277\335p\207\275\005\034\261>\266\317\317\276Z\371G\277rqt\275e\257t\277\317\034!\277\366t\r?6\021#\277\216__\275\316\211\262>p\0047\277\251P\024>\3212%\277Bi\353>\006\005\202\276\262\341\306=4-q\275\346\0221\274\245/M=\223[O?\220l\315\274\230\237\276>\n\351\001?}\311\310=zk\035?\262\222\324=\261\355<\276g\271\223>A\022\206>\315\007\305>8\034K=\357\\\256>\247c\353\276/\t\237\275\200O\010\277\377e\357\276\303)c?\361X\017\276\360\266\203>\214v\356>\216{\027>\244\222l>\202\334\000\277m\273\010?\020\332]\276z\372\005>a\310\301>*\nz?%J^\277\022)\010\277\301Qq\277\362\025\216\273At\311>\034W\350\276\357\265<\277\037\357\243>\327yi=C%\366>\033(X\275\376\301\251\276\354F\236\275Oc\031\277\374\025\250\276\227\351\010?\361\037\016\277n\341g?8\260G\275\335\032\177\2745\357\311>\016\273\"?`7)\276\367#\235\275\014\203\316>\324\243\250>\3234t\276lZ@>\021J]?-d\306\276\037\324\325<\323 R\277\264\212\245<\337HF\277w^\210>\371\337\001\275|\020\'?^\243\317\276;\237\250>\367\305M>\245=\372\2763@C=\371\014W>\213\302\342\2756\246:\277\035\366i\276\257\254\230=\210\315\372=\320\352\362\276S\261Q>\311/\263>x\261\261\276EsG;\216\036\374>r\231\250\276vCU?\336\214W\276P/\334\275\211\340\254=g\305\301>\034R-=\222\230\306\276\325Af\277\316JX\277\314\026\230\276\334\nh?\363\260C=F*\253>RY(\277pt\231>?5\027?\253\355V>\301n\320\276\255\361\320>\352\270\365=\212Y,>\017\215\213\276\203\313v?\253B\005>\375\252T?\214:\005<\032E\210?\3179\035\277\327\374L\276\323\324\014>^`m\277|\027\206\277\340\212\221\276\010-*>\350\344\244\276\377\005\014\277\354\256\031\276\346:]\277\215\321\203\274E\032a\277\247}#\277\345\332\315>\225\357\362\276\353\305w=\335\3450?\246\356\021\277^\010]<\335a$>\326\334>\277<\017\263>\240\225\032?\321\303n>\367\"U>\t\215+\277\244\267\036\277\367\0240\276\324\236\254\276N \207>\222\327\025\277_\nO?v\362\356=\177\232\205>\021G\346=\215\352i>\220\215l\277\320\337\016\275\310\211m>\247\251\r\276\362\234\254>\242\240\215>\213\307\023\276it\331\276\202[\024?\207\202\022\277\271\373+?b\301(\277W4\221\276<\223\202<\236\377S>\315\253;>\t5\242\276\177\226N?\036\022\037?\002\322\004>\303R\241\276\0036~?=Az?;\213\272>Wk\372\272\373\252\314\276\217E\022?`S+\276\224p\206?\007\276\031\277\037M\001?\335o\016\276\306\t\372>\010\016\201\272\207\277\031\277[=\226\275\303\203k\277\241$L>\262\223\257>\225\251#=\020;\024\277\206\226W?\320z\034>\335G7\277\n\2508\276\002\353\271\276\357\032K>C\251\321\276\364\266-\277L!\277>\276\253\036\277vo=\276x\214B>/\037X\277\313SL>p\230\264>\010\036)?$-C>f\201\250\275\202\177\364>\376\245\301>\226\202F\276+\262\240\275\016\364\201?\344\3111\276\266\"\007\276I\334h?\335f\260\276\214\274\264=j\344\272>\336\205K\275\230\324\022?\n_W\276\266,Z\276\307 \017=\214\361q>\206\351\037?\246\344.\277\343*\353=\033u\246\276~7\314\276\004z\304>"
      }
    }
  }
}
node {
  name: "sequential/FirstLayer/MatMul/ReadVariableOp"
  op: "Identity"
  input: "sequential/FirstLayer/MatMul/ReadVariableOp/resource"
  attr {
    key: "T"
    value {
      type: DT_FLOAT
    }
  }
}
node {
  name: "sequential/FirstLayer/MatMul"
  op: "MatMul"
  input: "FirstLayer_input"
  input: "sequential/FirstLayer/MatMul/ReadVariableOp"
  attr {
    key: "T"
    value {
      type: DT_FLOAT
    }
  }
  attr {
    key: "transpose_a"
    value {
      b: false
    }
  }
  attr {
    key: "transpose_b"
    value {
      b: false
    }
  }
}
node {
  name: "sequential/FirstLayer/BiasAdd/ReadVariableOp/resource"
  op: "Const"
  attr {
    key: "dtype"
    value {
      type: DT_FLOAT
    }
  }
  attr {
    key: "value"
    value {
      tensor {
        dtype: DT_FLOAT
        tensor_shape {
          dim {
            size: 128
          }
        }
        tensor_content: "\000\000\000\000C\007E\275;w\314\274\2517\033\274g\233\266<\001o\370\274j\203)\275\'\212\324;\034\304.\275\366\313$<\034\307`\275i\312\221=9%\312\274\030\254\r=\252\321\302\275\000\000\000\000@\366\246\273\313\037N;b\024Z\274\232l%\275G:@<\346\202\337<\314\205H\275\320\234\213<\253i\031\276\223E\336\274>UN\274|\226K\275\206\006\220\275z`\036\275\333\340R\274\277\025\225=\244\361\377\275\322^\204=\031\376R\274x:\271\274T\236\037=W\346P\275&\021\253=,\260t\275\213\260$\276\253W\330\274\242\270(\275\335j\275\274Ye\355\274\273\320\312\273#\342\213\274\224Q\005\275\212\255\211\274\356\243\037=\321\214\t\276*%\001\275e\257\254<u\322\206<\273\262\016>/\t9\276\343\214\361\274\246\331\275\272,\237\223\274S\025)=\326\205\206\276WQ\266\275KS\217\274\2143J\275\033\036<\275\032\304E\274E\025B=#u:>r\'\333<R\3147\2759\253\266<\\\2753\276\000\000\326<\361n;=\203g\236=\221\t\317\271\363\252W\275Gp\024>0\341\354\274\2012\355\275\241>\n\274=.n<j\"\024\276>j\036\274\003\361\256\275UG\325\275\021H\237\274\200r\201=w\270\036\274D\347\036\275\013\3477\275\'\003\224\275\026f\247=\240U\311\275\026`\213\274\253X\352\275\246i\365\274\206\271\376\274\000\000\000\000\341fZ\273m)\273\275\275\3157=\000\000\000\000a\022p\272\371[Q=\000\000\000\000\2101\375\274\205\322\215\274\217\372\210\275\353sv<>J\340=<\016\336<\275jv<\247[\330\274{I\356\275\251\025\201\275\016]\321<\305\353E\274\241\014\264<$\326\351<\266:\252\274\344\310\364=M%\260\275ZF.\275,\326Y\275|\253\212=\262\332<=\000\000\000\000"
      }
    }
  }
}
node {
  name: "sequential/FirstLayer/BiasAdd/ReadVariableOp"
  op: "Identity"
  input: "sequential/FirstLayer/BiasAdd/ReadVariableOp/resource"
  attr {
    key: "T"
    value {
      type: DT_FLOAT
    }
  }
}
node {
  name: "sequential/FirstLayer/BiasAdd"
  op: "BiasAdd"
  input: "sequential/FirstLayer/MatMul"
  input: "sequential/FirstLayer/BiasAdd/ReadVariableOp"
  attr {
    key: "T"
    value {
      type: DT_FLOAT
    }
  }
  attr {
    key: "data_format"
    value {
      s: "NHWC"
    }
  }
}
node {
  name: "sequential/FirstLayer/Relu"
  op: "Relu"
  input: "sequential/FirstLayer/BiasAdd"
  attr {
    key: "T"
    value {
      type: DT_FLOAT
    }
  }
}
node {
  name: "sequential/dense/MatMul/ReadVariableOp/resource"
  op: "Const"
  attr {
    key: "dtype"
    value {
      type: DT_FLOAT
    }
  }
  attr {
    key: "value"
    value {
      tensor {
        dtype: DT_FLOAT
        tensor_shape {
          dim {
            size: 128
          }
          dim {
            size: 64
          }
        }
        tensor_content: "\006\237\223\275^S^\276\354\374K>\227\350\r>\\\375\017\2762\2216<\314\325\223\275\017\211\023\276Y\020*\276\\O\003>{\320B=O~\260\275b\t+>4\254\256\274u\237\241\275 F\006\276\365L\270=\224E\'\275\232)\217\275\245\311\037\276\236\243\270=\375p\370=\001\345\013>?0\247=i\364\313\274\206\0308>H@\017>\261\375o>D\237\020\276\032b~=1\370\261< \022%\275m{\202\275\355\222\t=A$\334\273\304\010\026=z\251\003>\r\243\205\275\243|\307=\274\375>=\006v\341\274) \000\276\370F\204>\313\341A\272\376\365\326=j\335*\275\025w\010>\377\363]<d\021\215\275i\362N=\236\"\r\275l\n6;>\244\003>\025%_>}\363(\276S\271\312=\304C\205\276\342\001\377=\3274;=\372\271\024\275~TW>\024e >\346\3469\276ZH\337=}\255\363\275\253\244I>\032#c>\367|\206\276\177\251~\276Jn\\\276#\306/\276\232\271\232=?\200\214>/\243\210=I;\250>\022h\355<\177\351\214<s\256\347\274\3613\016\276\032M\273\275+~\007>3\240{\276\300K\234=\177\017\257=G\370\240>\375\324S\276\2037\210\276?\360e>\217J\024\2752\347\344\275\331\216 \276\365\231\002\275W\206\275=PY\036=\363t\023>\276\021=\276=c\303\275_\373}\273&\017=\276\3644C\274\037\317\330\275\267D\252=\322F\020>a\000\275\275\230\372\003=\351^.>\256/o\275t\220p\276\027\260\265<\303\027P\275\273\333e\276\262\n\014=NA\021>+k]\276\310\346\244\275h[|=\335\362\304\275\266\373\325=\020\205I\274\026\241Y\275i\226/\276\310\325\334<D\263\263<\213a\240\275\033B\227=\303T7<\225\337?\2748b\206\275\347+\211\274\330eh\275F\237q>c\t\325<\036\355\224\277\235\270\005\276\350\222\200\275Xe\227\275u\243\305=\232;\210\275\265/\243=0\256\202<S\004\224>\270\364\031\276\213m\007\276\310-\035>\213\210q=>\225\220\275\020\256\234\275\250\316\301=\207H\221>\036l\260=I\330\017\2763\037d\276@\216\274=\345:\350=3\\?\276F\222\204\276\205\361\024\276\315_W\275\001|#>\035q\203\276\247\236\221\276!Y\027=\272\006\254<\203Z,\276\271\250\016>n\215\223\275\366\203o<\346\376\214>S\001\346=\323*\210>\251\234\006\275G\014u\275^+1\276S\007\364\274\262C8\275\031:*\275\212\213\210\274g\226[>M\362\254=\360#\017\276\212\362\225<\276\326\035\276\263\t\\\2754\022Q>\326H\023\275\315\363\344=\253a(\275\245\2556\276lW\233<\003y\345\275\257\003\376<H\321\332=\264c`\275\023V\216\275UD\375\275\345\\y=\211\261\224\276\027\337\365\275\301y}\276\207\375U=\002\364\370<p\0360=\235H\316:\264\353\331\275\355}\315=ob\000=\017X\002\276\266\017\263\275\335\331\257\274\343\006\037>I\2638\276\020!\357\275\336;p>\014-B\276#\366\334\274N\026\333\273#\014\034\276\226\321\346=\250\000\255\2742z\030\276\020B\003=}\004\203>Ta\221>G\347h>\242\017\366\275r^\364\275v\203\013=}_\035\275\2713\203=\244S\370\274j\243?\275\215\'\263\2757R\036\277\322\322B>\377\235\214\274\225\016\312=Q\304.>\243>\025=\222\214\231=\010\256\373=\241\003\037\276\271\205\260=OP\254\275JD_\276\226\227\251\275w\261\t\276&Cj>\027\314h\274%\034\266\275\270Q?\276M\346\261\275E\021\262\275\230\274\277\275\003l\035=\354^M\276\347 L\275\272\206D?w\324\022\277\217s\317\276\333\372\201\276]\021\306=\311\035U\2765<\224\274\027\252\230\275\311\241\231>0\207\\>\331A\t?]*\377\274~O\315>Qn\243\276>\230\375\276\010t\030>\354}\262<\353\r\344\276G\354\320\276\252\2403\276?\367H>=\320\314>\242d.\276!Y\013=\304e\312;\213H\320\274\251\214\305\276Ze\031>\250\235\227\276@\214\010\276\007\035\317=\027\215\362\276$<%\276/P6?\000\002\204>\024A\026\276\264\260\002\276\031\201{\276\355\347\354>\333D[>\010\024\t\277\261\213?\276\325\031d\2762\351\301\275\264\254\363\276Q_\024;\262s\246\275\026\310\010?g\241R\274:\315\331=p\244\232>?sU=\364\227E\277\346O\355>\020\361\004\277>D\270>\223\316H>}j\275\275\002\230B>\207\207\212<\255_\253\276\227\033/>\340\307\020>/\351\353>\001b\001\276\016_\332\275\220Y\370\274\270\267\211\275\223\331\305\277qD\004>\217\301\254\275,\357\256\276a\027-\276M\034\276==\271\036>\000\020>\276\321\221\025\276\254%\037\276A\214t\276\315E\314=lh\205>L\354\033>&P\334>~\251\301\274N\3342>\320I\311=\222[E;\034\346\202\274\255T\005\276\033V\350\275e\306k\276d\240\031>\3641\201\275\310\366\304\276\303\217+=I\007\325\274\254\243\200>\363\270\342\275\344s\336<(T\252=\340\363\303=\364\361y=\371?\240=\336\336k>fH\003>\301\321\324>\301\331,\275\216\024\264=^I\330\275k\374%=7\276&\276\206\023\366=\031O\366\275\252d\346\276\313\017h\276\216\346u>\036\014\025\276\336\243\213\276\311t\\\2766]\353\275\001G\242=\213\210\025\275\212\203H>\366\034j\276Q3c\274\360%\353\275\023\350o=\241\025\333\275\205\323\254=c\265 \276\014\321\236\274\222,\204=\3774h>\223C\207=\021\267\003\274\235_\217\275\276\276\346<\366K\355\274\367\"\276\275\216\363\213\274\357\222!= G[\275X\226\013\276\201w\230=\251\337\r\275\326MF\276l\304t\276m\256\265=\252~\030\276b\251\005\276TW\034\276\037\004\205>\r\335\r=\235}e>A\"H\276\224\234\\=\030\310\007\276\307\0065\276\020\277\211<\340\355\010\276j;\265\276\267}\315=\275[F=QS\035=e\273(>\267|\217\276!\247I>\001\376\211>\272\214 >\274P\263\274l\367g<\365\366\352\276\235\271\267\275F\264\004>8\026\357<$\323\013=:\220\026\276+\227\263\274\370\t8>*1\232<V\305\t=3\346\252\275\177\307\364\275\261\225\242;\222\0173>W\307\025\276\233\026O\274)\373\330=\217.-\276\327\003\235\275\237\003\301=;K\220=\335\230\317>\007\321\217\276\r\276\372>%s\357\276\017\314\231>\333\377U\274 \306\226=N\2349>\216\3427?+\323\t\276\203\354\215>~\242\223>bVK>\322\364\232>\342>c>a\005\224\276\210m\r?\360\247\255\276\206\227\207\276-n\366\275\336\221D\277\312\342\337\274\365\346\343\274Zcf=N\342\225=\220=\212=\243(\252\275,\244\365\274Y\023\303<M\034\211>8\321.\276\204\004M>\217i\005\274FE\356>F\312\300=\371\257\360\275\0136\217;\370&\304=\274f\243</,#\275\332\213m=\355\010A>\313\376\357\274\370\333\277\275e\203\275\276-W\213\275\021\302V>\003\275\256>{\304\247\273\r\315\360\276\237j1>Z<\301\276\270\257\223\276dA\343\275\010\274\220\276X]\316=\316\226\310=3t\333<\017/\217\274c\371V\276\330\321\353\274\021X\t>\r\024\345>\231t\035\275\341[\326=|\262\320\274sm\n\274\267\272\274\274\362:\315\275Z\365]>\301\335\345\275?Z\014>Yl0>\002\030E\276\334G\364=\373(\300\275*\276\247>\217\255\037\275\272\n\227\276w\204\213>\210K\033\276\005%\332\275C\225\335\276\354\016<\276?\025\314=xK\243=\234@\272\275\256\373F>\232\231\250=\224\216M>f\262\251\275T\336\307\2759\253x\276\r\0040\276\354\352\213>\222\205F\276\340\255c\276\376\317A>\254\032\377=.\n\260\275\014U\371=\235\026b=\301\206\225=]\257q=9J\247>X|\257=e\342\217=\006\210\200\276\320lT\2758\020\255\275\371^\'=\014\203(>]\033\001\275\300\202\252\275\337\250\235\276\030\264\215\274\017\037/\276\254\001\006\274,Cb=%\312\006=\216/\347=\322:\361\275\365$\034>\376\005\034\275\334\366\240\275\275\202\t\275\253\331A\275\274\367X=%[U\276\211\221}>\222},\273\177\245\330=\237\021o=!{\347=\256\302\311\275\037M\374=\277\027<\276\035p\021>\344\030\307\275\206\355\242\275\277\216\254\275\317^@>\007\324\213=\r\207W>w\202P\276w\236\031\272\311km>\031;F\276o\301\337\275\220\247\364=\311\033\025\276\347\3752\276P\335o\276\336\306\004\276\325\247\321=\211\010\322\275R\316\035>\004\332Z\276\307\330\205=v\303h={\312\272=\322J\357\273r1)\274H-\013=\256\216.\275S\357n\275:&\"\276\300\020\227\276C%\340\274r+0\272j\237=\275\267~:>\231\317\373\275%\266\261\275\335\021\355\275\023\316\236\275\271\360\311\275\330t\321\275\000\337v=\351\276\026>\375`\003\276\274E\002\275\t\372\001\276\303\302\031\275\231\347\254=r\236#\276\212y\257\274\027\206\217\276\337\213\231=\021\263\276=\271\307\021\276\3263M>\r\234\254\276r\316;=\313U-=)\245b\275\321\345\234\276\201\320\220\275\021\007\242\276uU\312\276=\240~\276\267d\023\276\225\303\000>j2\304\275\33156>-\267]\276h\345I\275c\260\342\275FG\003>\221\323]\275.D>\275\363V\026\275-P\275>\244&x\275\026]\327\275\022\314\234>\262R\237\274\351\357C\275\374\312\253\275B\t \276\000\233\025\276\274T9\276\244\017\224<?\355&\276\000\266S\276\315\325\201\276\264\177^\276\304\'\376\275I8\263\272\022\\\222\276\332*\270\274\316\300\270=$\235\335\273\344\302\0258)\365o\275<\025\201>A2\021=|[\237\276\031j\257<\010\363d<\361{8\276\204\367\315=\213\022\265<{Pk\276\007\302]>\\\262\375\275\'7\322= \221\255\274+\343\225=\252~\254\276\231\266i\276V\225\373\275Cv\361\275\037\'t=\330^\305\272\311\340\363<$KA>k\006\242\2765\224\264\276\021E\315\275\3231k\276\0007y=\001au\275@\304\002><9M\275\372O\216\275\rc\250\275\036n\334<g%\343=F\355/\276\031\323X\276\212\035\206>\356\376\333\275\335\260\302\276\365\266\245\2758\0215>N\321\337<\006\024\261>\361*\031\276f\301\237>\207\306\325\2755\234\344>\243\204x\276\033\315\226=\237\307\020\276p\216\307\276v:\321\2767\\I\276\363\024\360=\350\2343\275IA\327\275\210g?\276\303\022\027\276\370FI=\275\200\355=\235\364\227>\366\236f>\216k\265\275\237ua>c\342J<\2373\223\276\257&\217\276\006\370g>Ke\025=\222z\200\276?\322\336=;\014\203\276N\037*>\212\233\202=\224\215+\276\322v\326\275\232\226e>o\214\251<\201D\250\273~\333u;\303\366\233>[\005\305\275\220\352N\275\000\327\273>\275\303 ?\'\273\273\275\022\257J>u3\325=o\252\205\275 \025\315\276J\276D>\342\354\243<#:\231=@\314\270\275\271\274z>\373s\217\276O]\032>\r\337+\276\250t\211=u.\253>\317\250\306<\342 \"\275\\\313\260=\354\270\372\275\032\034\217\275\242\n\270\276\371\332\256\276h\224\372=\217dh=\264\306a=E\273a>s\207\000>\207\370\255=\305\336\336:/\210\373\274\253;\020\276C\375\n\276\3576\317\275\330\006\203=\025\373\367=\251(\002\2763\332\351\275\370\215<\276`\263(\276u\331\203\276\177\0208\276\206\335e\276o\250\223\276\023\345\203>\0131W\276\'v\273=\344\324\204\275\302\261\311\275L0\032>,\227&\276u\264\244=\3005\314\275\274\322<>d?\263=\310>7=\236\007\322=R\365\373\275h2\013=H\234\013\276\301I\026\276\006\035\256<\3556!=\322;6\276s\2571>\2153\364\276D\332\"?T\260,?\226\215\232>\000\265\215\275\255\2753\275-\035C>\202=\215>\345\343\203=\271F\267\275\263e6\276\002V\227>\017\341E\276\030\035\032?\350*L?\032\336\333=G\021\325=\032\333\026?\337K\365>\0179\223\275\356\310E\276\236\353D\2771Cv>o\364\353\276\200\323\231\2757t\214\277\314\027\r?-\221\277>\270,\205>=5\260>\212?\322>\367.\031?\230\003\r>\t\276\316\277;\031\326\276\311_\362\274\242F\271=<\256\r\275 \203%\277\3117\314\276&\345\343\276+\367\226?\231\212\355<\235\223\220>X\226U?\336\225g\276\3411\016\277aLH\277\234,(>\310\001\001\277Mn/\277\345\352\212\276\036\354}?\260\200p\277{]\235?\256\345H\277fX\213\275[]\013\276\3464\241>\004!\274\275\344\370S??\202D\276(\020J\275\023 L\277n8\030\276\330\247X\275Lgc>K\276\021>\247+%\274\206\351\320\275\370\005\243\276\363\025\036\275\240\337y\276\335x\003\276\013;\004>\213\376X>\177\014\343\274\264>\224\276\325&\006>\372\021b\276}\t#\276\334\314\243=\222u\216=M\350>=4m\201\273\227i\262\274;`\022\276F\364`\275\024k\n<\177\361\216=+\352\233<Q\203\016\276\200\277\323\272\316K\276\273\030\217\227\275\016\330M\276\224\357o\276\016\301\204\275%Z#=\nZ=\276\nq\202\276\351*\'\276\034Z\346\275\217\014\370\275J\315F>\030\247\212\276\340<\272\273Z\332`\276\316\340\006>\035\203\207\275\031y5=[t\037>U\353D\276\036c\254=.\207\025\275L9b>\273M\253\275\305\362\254=[\007I=\354\266\316=\353\325\214\276\275\033,>\3030\034\276T\236+=\210sU\276\215\302\354\274*\233\212\276\364\322m\276\365\275[\275\205\234)\276\307\202\334\275/~\031\275=]\255=x\023?>\234\203\231\275YT{=\022\237`=i\235\357\27570\205>!\250\004\275\'\330Y\275>\274)>\365\223%\276?a\367\274O\\_\2743\035q>ltd<\261\234\354=Y\024\314\275R\'7>\245\217\200>U\216\260\275\317\264{>\345\270\211\275v\332\347=\243\235]\276\244\316\225\275\270#\302\275\365\321\025\276\250\230t<\217\252\r\27653\227\275\346\353\000>\034f\310\273\321;\027\276\000\322j=\244\376\260\27406v>\3409\313\2749&\332<\0022m<v\311[>U\026\270\275k\313\034=\033\273\023=g|_>\370\364\222\275\331\303&>\302ch=\352\271\014\276E3K>Dt\334\2752%:>\231\367\026\274\273\337\272=uE\206\276\035\374\366\275\324F\346\275\275\277\234<\327p#\2769\210\t=\351\311\370=\257\250i\276\267I\212>\251,\365\274\334\340E\276\240j\217\274\370\204\234\275LJ!>\035l:>#\033\246=\251\274\033\276\240*\006\276cli\275\370\204\332\275\002\2233=\255\372->\336\361\202=\007\232*\276\232\r\325\274\223\267O\276\2446-\276\231\256\232\276\032\336\031\276\3671\267=H^\276\275pCM=\336\217\257\277uD\211>\207\364\333>\021\303,=q\346!>#\207]>$v\365:\274V:\273\220\200\311=s\005<\275\316\3765:\344SG\276\217\271\310\275\0011\001\276\314\251o\275\231yM>\206\343\227\276{\217\372=9\204\305\275\323:\350\275Zw:>7\341\303>\r\346\'<\256\213\322\275hfn>\351\010W>\364u\351=\214\251\004>\273R\210\275@\366\342=\207&\001>\223$\202\276N\t\014=\361E\310\274o]\017\276\027&=\276\033\347;\276P\326T\276\352\254\004\277\231T\231\275hL\237>\211\266s\275KN\007\275\264rp=\274\022\303<\225\266\366\275\177y\031>q%\027>\353\344*>\267\251f\275\367\034\034>\257*\010>\247\347\354=\314w\274\275\244\242:\274H\177\277\276\376$P\276\343\344\347\276y&k=ms\234>\255\251\"<\023Q\027=|\246\310\2750\227p\276\225\211L\276%u#\276a$\212>\237\216 \276\034d\261;\240{O>\340_\031=[\"\373=\ta.\276\211\363P\276\3629r>\n\251\320\275\274A\225=\026Bo<\202\255\223=h!\014>\200\227\316>\263\332\000>\262\333\022\2755m\022>\374fh\276\266\266H\276!cO>\205\007y\276z\311\211=\027\010\236=UCW\276\255`\307;6^\373\275\245\224\372\274\035\225\001?C`\360=\244B\240\274I\331\252\276\313m \276B\017\006>\255\016\013=50\336=Pz~\275\336\263)>\365\344\271\275@\267\362\275h\\\230>\257M\036\276.c\220\2756\265\261>v\212>\276\253[\250=!\030V=%\177\204=\021^\264>7R\013\275\225\204\177\276_Pb>\254:\354>\304W\025\276\245\260\006\274\001\222M\276\215J\t=\253)\253=\004\371\356=\21634\276\034\216m>\357\367s\275\177\202\022\276b%\272\274\260|z>n\321\227<G\375\207\276L\223t>\367\215\213\276n\026\014\276\037\247\263;\255\177\035>\037j<=\3264@\276\\\017+\2769\257\324=\2537\306=j/\036\276\375\242\265>\024{>>\212L\035=\240\317\021>W\250.?\376\363:>\014,Y\276\206\211\t=XVr=#\371\240\276\234B\233\275\364\031\010\276\214\355L>\313\353\"\2765\036\245\276\270\331\002>\326\356\337\272\304k\024\275\013d\\\276\3004\313\276\315_\227\275:\016N>\037tF\276#\304\347\276\256\341R\275\223E\221\275<I\333=\002t\203>\017\017\222;_\372\211\274\030\2231=\255\315`\276\307\230\215>\230\232\027\2764L\373\275\264Qa\275\2350\365\275>\342\363=\375o\376=Wk\023\276O:\236=\3445\200\275\033\372\310\275\333\267\242\276{\005\t=\354A\376=\376(\217\276\300\3300=\307\341\341\276\302\002\003>^\263\246<Q\303\247\275\365P\362\274\246F\303\274?9M=\353\265\211>e\262\\\276\343n\240\271&D\323\275\217\000\220\276>d\310<\250\355p\275d\305\244:{H\237=p\250\245\272\312`,\276:,\237=\377\204.\276YI\377<\032\022\322=\317\020/\276\340\211=\276\251\231\376\275)\026k\276\030\375\275\273\200E.>\264\021$\275&e\234=\212\357n=\245*\303\274i-%\276\233\201A\276\013\n\374=.\0076\276P\tg\2746\013\000>MO\221\275\240\np>\014\026&\276\326\306\022>U\302\030\275<\201\344=:~\020>\257Vk>\362\270\215\275e\032\007>\303\034\262=\235\t\224<\226B3>\254\362\310;\377E\206\274zX}\276G\314\374\274\210\025/\275B\ru=Gou>\363\335\257\275n\301\206\274Z\372\242=\3122\006>\225\227v\276m\344\327\275\375A3\276\357\331L\275\302V\211\275d\n\n\276y\223\010=<\tx\275\215P9>[^\323\275[\372\013>e\215W>\261\312\266<o\336\347=M8e\275\256\000w\2753f\023\276\373\356\216\275\036Mi<\267\303\265=\355\002\230=\344\207<\275By\250>\204\205\326\275Jz<=l\251J=\224D!\275\234\2162>\222wy\2764\007\261\276\350x\001\276x-\330\275\325Fa\276\nV=>R\363+\276\016B;=\237r3>oO\311=\021\267\245=eIX\276;vN\276\014V\013\276\260\330^=\316\035\331\274Vz\306=jJ\n\276\254\363v;$\262B>l\274\234\275\212\2032\276\255%\261\275\364\205\261\276\326\377\346\275\'\026\031\276\r\200\243=\344;v=\227\262\277;\217_\271=\310\0204>~\372\203>`u\257=\2250\213\276\227\324\320=\270\224\354=e\2062=g\241\022\275\211tt\276\226*A>M\265p>\245\354\r\276\352!=>\\\310\225\275\233\2047=c>\204\275n\244:\277\217\334\272=\030C\241\275<K\245<DG\243=\034\246\260\275&ma>|\314X\276~\337\226>p\257.\275\235c@=.\0210\276\254| >\361qJ\274\034\216V>\257\374\003>\341\3514\275\376\3363=W\341\221=/\312\204>1\232A\276\035\235\313>\225\333|\275x\356\220=\316\031\214\276.\035]\275F2\003\275W\336\261=)*\257<\250.\357=aq\353\276\337(F\276ES\271\274\331\300\213=\255\345\345<N\n\253\275|\216\234\275_aB>v\267\002\275pgg\276(\030,>^\247\275\275\260\021c\276/\263\301\275h\243F\276\237%9>2\363K\276\363D\023>\233\253T>\251)N<\356\221|\275e\374L\275^\361)<\313\327\221=\335Ci\275\267\214\'=\312\303\202=\330\206@>.\024\373=a\"\215\273\322\010\177>\237P@\276Y\364\273<\324\227Z>7\2548\275\241)\231\275+6\303\275\247)\024>U\2165\275\325oP\276\311\305x>(S\210=U\367\320=/\1775>\3045\334\275t\267t\276\203\004?>rv\036>e\242\016>Y\004\235=\314\360\342=\307\'\234\275\327\253Z:\260\025\200>\304\002\344=\027}\000\276\253G\013>9^S\275\034\271\003=\303\020\262<Wm(\276b\354\227:\353\021\355<\"8\376=p\253:>-\235.>:\364V\275\260\020\247\276^u-=\356\367\214>\354\025\024=\207\301\240\274q\024\234\276\313Fl\276\347.\322=G\321}=\315\037b\276m\322\274\274\340\230G\275\032\t\024\276b0\314;\360\250\336>\222\232\027>\342J\276=A\247\014\276||6=\201+\003=\300\005=\2757\244\346\275>\346$\276\252\003\001<\0104i\275\227c\277\275~\207\000=\022\020:9\013a\261\276\232\344Q\275Q\361\310\274l\343\230\276m\256\371=\347\367e<\013\354\002>\335\363\316=\276\315\211\273\2434\353=\027\261\265\276\273\265\321>z*t\275b=\320\2758\243M\275\003\225V=\210;\202>\202\277Z>\275\010\275=Sd\227>P[\372\275\262tq>G\322/\274c\025\241\276\264\232C\276S\200\000>\000\241\304\275\253W\"\276r}\206=\232D>>\247\202\351=\273\025D\275O\253\013>\236z\234\276w\204\032\276\234v\032>\275\254\212\275\313\263\363=1\205b\2751\\\204\2763\234\022>\2760\031>\353p\267\276(I\223\275!\237r<27b>\346F\271=\240\354\026>\341\030\t\275i\350\177=#VM\27605\220\275;\235\312\275\277#!\276h\251W=\236\242W\275\036\261\324\274\263t\325=p\264\027\276\006\017\302\275\323\020\241\275\325(\204=\206}\234\275\365\330\252\273\003\272\334;\202\346\307\275\250\365\227\276$\260\255\275\300\336\014\276L\363\233\275*\351\037>c).>\005\r\013>\037[9\274\022\342*\276\335\332 \275>Q\031>\272\017\206\2764\372\307\2758(\000\276\375a\273;\200\330\261\275\013\243p=\027!\t\276]\323\356=\314\244\200\275\234\303\252\275\342Cd\275\336\303W>c\2500=E\234\330=O\356\320=\340\262\r\276\227\365\010>\324w\211=\260It\275\273B\247\275\006$\332;gQ\310>\250\230\215\276\373\337v\275\245\\u\276\246-(>2\270I\275\2214$\276\242\2650>\'\365l>_\204;=\371\206\001\277\270\033\222=T\353\365<\311\356\262\276]TF\276\277\006$\276\326\213F\276\320\332\027>\360Q\242>i\005\263=\201?R\2754\260\036>\300f\034=\330\3569\274\\\231:\276s5\361=\256\272\214>\215\216\305<\342%h\275\354G0\276\313\223w>gE%=\023\325\214\275\306\216\323>\272\242y\276ld\232=\320\346\014>M\336W>\234M\264=\262\201\010=\n9\225>\345T\220\276\326I\254\275\371\001\275\274+r\243>\215\026\367=\326\212\313=\2554T\275\371U(\275\260\023\020\276\213\363T\274\256\252\230=f\001\034\276\365\234\215>\\\261\215\276\314\217\213\275\332\342\016\276\224\006\316=\210ig\276\241\265\265<\230~\354=\310\256\346\273\231,\222\276\355fI\276\322\265\270>\021\214\213\274\325\202\211\276\306\361\247>\200\310V\275\336\276\224=\210IO\275\322l\341\273\352S\305>\300G\326=\312\256P>\023\337B\276\236\315\320=\305\223)\275\263\304\347\275\307Pg\275\300\031\221\276\022\350\210\2757\216\216\276\303V\t>\247/\274=)\377\200\276\211l\022\276\3229\022\276\310\252Y\2755>\214=#\3200=3\211H\276\210\251\277\276\305\356\377\275N\343&>\252\234\013=\327Uf\276\362\215\226>\306LN>#\t\201\275\024\n\275=\017sw\274s\270\201>_\320Z\275\213\025\356\275\316\340\317<>\024U\276\255c\033\276W.X\276\215+\364<\227\321<\272q\217\343=C\327\306<\314\313\213\276\262\342\024>\226\205$\276\240+\254=\277\371\237=B\202\223\275$2,=\333\207\346\275\362\267,<\314h\210\276\241\2436=,\0263>\245\007\020=\213\004,>S\333Z>\371(^=\274\243\375=,\2745\275\2709Y\276\217\'m\275\215\206D\274\235\313\004\276u\201\243\276g;S\275\304s\203\275\206\202Z\275\221)\242\275Q\232\203\272\372\326\207\274\326\214z>\325\3742=\016q\311\274!\317\007>\260\013\363=00y\276\207r\241=\257%w>]\303\017>\355\314!\275\227r\313\275\206v\336\275\333\177\024>\300\031b\276\024q6<\024C\034\275\231(\367=?\027\213>ZX}\276\205e$\276\331\340*\276\341\266\033>\270\241\002\276\362N\371\275\321\266\211<\252\241B\274\225\275\342=\246\343X>R\262\255<Lxf\274\375\357X\275\262 \n\276\334Yi=o\010L\276S\222\013=\211\0347\276\003\261\265\274\277}0>s\201\317\275\017h8=N\353\005>\216\004G\275\353U\371\275\207\014\">\371\210\007\276\016\217\034\275\234]\370\273!\200-=\204\340\352\275?g\310\275\366g\216\275\262u\211>,T5>d-\273>\316\300\215;n\260_\274\342P\016>\241j\214\275\017\022$>\221t\231>)\245\263>\373\007\307=\371\304\r\276u\300\266\273\235\032\220\2752\344\300\275&\023\321\274\033\035g\276Itt=\341g\277\272\227\224\237<\313\376m\276\253\210\217\274}?\273;\264\270P>\307\016\216\274\234@\220>[\266\031;\327\007\307\275\202[\n>QkS\276\202\341\272\274\264\275\032\271\242\204Q=\242\357B=\225\216\r\275*\362j\2763\200.\274-?\237\276\023~\206\275q1\224\276\002\250\316\2745\335,>\354@}\276\037\217W\275\276V\205>.f\366\275\226~\254=\271\222\216=:\240\366<\336\245m\276\260\315X\276\244\310\312\276\314\0318>\322,\216\275g\242P\273\227\005S\275\247\r\314\275-\246>\276L\343>\275<>l>\037\016y>,\371\356\275\335B#=G\032}\276Y\221\220\274ul,=c\205\333=\320\223b\276\027\201\210\276in\207=\245\2319\276\376\'\321=\023\336\n?\227Tr\276\270\323\364\275\311OH=bI\014>\177\376/\276\244T{=H\271\274>\334U\316;7\'\240\274\032\263\273<f\330\275\275\246\244\377\274X\261k=\010P\316=\231\254\245\276\021.\306>\006\275\326=\232\275c>?\234\220\276\2524\016=Y\324\266>\\\316\307;\326\272\\\276\242\324\000\276\373\315\010>\237\222z\276tr\007<\352\255\240\2750\264y\274\004\363v<\262\321k\276\251H%>T\367\002>\226}7\275Y|\246=\327<\201>@\237\330\275\031G\017>\007\330\205=b\005~\276?0\237\275qh\027\2774I\230>\2616d\275\010\215\344=a0\037\276\271\224\275=H\260X\275\341\253\007>[\276O>\206\035n\276\376\231\334<\3259g>d\216\215>\376\216\336\2755\352@>)\356\354\274\343>\375=#7\335\275\217\213\031\274A\300Q;6Z\331=\177\306a\276\364\005\352;\365\301\034=\315\0058\274h\263\215\276\005\222W>\033\234!>\003B\225\276\022\372H=\335Z\013>\261\252\006\276\260\233I\275\"\216Y\276G%J\276\215-\255<\205\330\\\276\347`\030\276\371\303\r\273\t?E>O\327\232\275\351/\210>c\212\317<U\272\323=\304a#>\243\365\031\275.\255\253<\346Qf=\303$\016\276\230\236\232;\256\020\201\276.L\272\275\217\356}\276\221\232\224\276.nl>l\255\t\276\277\362:>\201\322\341=\224\n\327;\177\355\025>\237\244D\276Y\360\r\275\301\007_\276\003\227H>\242%\326\275\3751\004>\342\237;>i)\312=\244\204\002>5}D=\365Y\014=cl^\276\3505\266\274\247\247\021>S\372\250\275]\035\336=\355\\{\275^\324\013?x%\200\277\355\030\212\276\276\'\r>\362\300\232>~\217,\276,\261\205>\3446D<\005\352P=\2664\252\275i\324\232\276\232.\304\276,\230\311\2761\2302\276\243O\263\276)\302\300\275\000\313\214>\353-+\277\371\023R\277P\003\235\272F\177X\2767\252\265\276\004~d\276TvX\275\236\366\315=\260ps?i\326\377\275\022\355\221\276q\336&\275er\212>\377\005\237\274\346\0335\276\231V\207\276\264\366\t\277\220\365\301>44\254=M\2262\275\300\263\227:\2325\257<@\320\255\276\273\210\253;\304\206\335\275\342\341h>\264\302L>\244\260\003\277\271\2572\276Y\327]=:Y\301\273\031#M>\204\340\207>\237\350\036?\014R\266>\215\302\302\276\034\210+>\304\204\004\277\230\250\253>}\265!\275\270\032;\276\253\220f>\222\373\200>\261q\365=\002u`>\220a\002?\302\314\270>\217\360\233\275\270\306[\275\235\305\323\272\261[[=Q\3261\276;\252\205\276\203?\210\275)\261]\276\253m}>\330D\014=\277\034\353=\024@R\276L\352v=\220T\004\276\023;\372\275!\253Y>\300\312I\276|\312\002\276\025\212\025=\3462!\275$%\237<\256%\035=$y\235=w&s>\024\344\177\274\212`\231\275\225\252\221\276\201K\355\275\374J\031>\023\326F=Wj\220=\307\307_=\226[\326<\331]\271\274\341\315k\2768\245\300<q~$=&+$>\371J\333\275\237\331n<1\000\004=\330\242\031\276\337\206,\276\340\202\242\274BO\263\272\352n#=B\345\206\275r\203\267<fz\250\273\265\255\363<8\374\255=2YA=\210\311\240\271?\377,>\3021\271\275\230\242\374\274-J\362=l\250+>V\356\324\275\276\261a\276pv;=q\257\325\271U\255\030\276\2235\233\275\352sG>\231\311\210\275\205=y\275\240\340\361=\017\002\032>\256\267\217\275\251\366)>\202\301\371=\341\362J>D\346\016=;\257\203>)C=>^\014\006>\025\nt>\025\213\305\275{\'_>\326\"+\274hQ\222\276\330y?\276X\350\037\276\023\273^>\317\203\251\276\256\207\364<\320\237\234\276\323\251\\\275\312\340\246\276vO\">qh >\262\335.>@P\003\276\006\315V\276\177\306n>6/a>\014\211\022>\001\237\305\274\307\356\222>\341o\256;\026\311^\276*Z\315\275\202\261\260\276\205r->\315\373\267\275\354\0057\276\266\306\262>\001\334\340\274\'\250\n>`\213^\276l\017\245\275L\270P\276\204\3574>\211\372\247>\311\264\230=\n\031\345\2760\254\347\275d\017\265>\320\334\376\274z\253\235=p\251\230\275\027\322\227<\'\234\202=\373WG>\016)S=\367\250\025\277\300\243,\276\014\312a\2768\211*?\005\363\246\276!\245!>\375\251\320>\315\245\"\276\277\236\227\275\340\327\331>\377y\240>)P\t?\262v\026\2766\262\226=\'O\307>hj^\275\376_\224\276>S<\276\013B\005?r:->*\276\231\275mo\203=.\376e\276\317*\262=\346L\232\275W^\263>V0{<\211@\n>oX\212=z\237\263\275\227[&\276i\344\331=\306q\262=8\347\234>\372Q\220\276P\3015=\'\017v>\235\275\256=\265\310r\275\032\004\300\275\347`D=\367\033\320=\265\"\276\275\370\351\246\276\3672\035>\374~\273\276\177\212[>\2010\r>{\234\347=w4b>\343\3112>\351\t[\2765\3122>\003\2047>\201\321\037\277\307\335\032>:.\261\276n\340\245>\311oG>>\351K=\310YP=\307\221S>\371\352+\27688\240;\257\221\243\276\356|5=@\314\332\276L.\257=\215\251G\275,|\252\275\333\322\360<s1v\275\002\003o\276(%l\275]\001\014\275\306{\365=\230\3203=\347W\224\276\356\026\357=twA\276d^\355\275\272\247\300=\023|+\2765p->*\001\213<\031Qp>\364(\313<\277\315\325\273\tgi\276\377\205\204=[?<=l h\276\024C\013\275\262\224\262=\356Q\207\275 \254\r\276r\364\327<\217\003\316=*K\304\275\034\2474\276A\215\252=7\022\320\275\006\222\232\274\216\036^=\270\273\245\274)#e>\273\207\006\275\"\013\264>R{\223=\321\367\234=\274\312\215>\275\351\214\275\223\021\032\276\205\307\364\273s\211 =\036{\254=\245.\367\275\270\216\022\276\354\327\006=8\037A\276j7\371=\212\271\374\275`\177\257\275\246(\333\274\256\260T\276k~S\275p`)>\261\271\035\276\302\204\301\275\177X\310\276u\3708=\026V\270\274\242R{;P\321\222>vB\312=\037G\035>\303B\324\275\333\233\177=@{:\275\340\305\234=F\332\310\275\313\316O>1\243\271;\022-y>\303\260\300=\313a\312\276\tj\001>\222\004\233\275u\005\203=~U\"\276\016\317o\276\222\273\017\276\230\003\007>\3511!\276\366\257I\276\231O9>\360d\233>\002`\255=\026\002\307=\227\257\016=4u\333<\013\2020>z\004\302\276Y\2269\275\271\367\272\274\'`?\276N\0034\275c\006Y>!\277\213\276\023\217\034\2769H\271\276\036\367C\275\033\031\020\276\262\250\212\276e\3041>Xt\235=\312\027?\276\323L\322\275D\335\035\275\nD\364<RI\372\273\016\374;<0s\031\276\353D\227=\320 \r>\257\211\213\275\274%|=\246L\'<\005]*=\322~\032=RK\227=\226\355{=\375\375M\276}\010#=Q&\016\275*\342\024\276\226\246\253\275&\177\021\275 \336v=I\010.>m\037\254=3~\254\276\305\265\006\276>\270)=+3\216\276q]g<P\237P\276E\tE\275=\347\321\275\001\005y=}\254u\275MuC\275l\346&>O\2220\275\326\301\031\276!C0\276\355\202:\276A\376\037\276\326.3\276~\377\231<\277O\270\275\362\207j\276\265O\320=|\2121\276\217\274\211\276\224j\370=Y\215D<=L\243\275\344\377@=o\246\016\276\r\000\177\274\227\250\250\274]\267=>N\315(>\243\254\354;F\207g<\254\311\201\275[%\230\276\367\035\306=\3528\032>@\257H\274\2065\262;\334Ds\276\251%\306\275\360wD\276\275\264\312\275S\336\265;\261\343\031\276\020\260\274<\020\201J>d+N=\240e\270=\226m2\274\034 \326\275\307\244\224\274\356\3526\276k_\002>\350\362\366=lY\022\276!\nA>\242\353\212>\351^\322?r\033_\276f-\236\275\355\347\371\275H*X>>\271\242\273\322\001\321?i\345\225>\377\214\017\275\361nL\273\245\224J>\037:\232>b\352b=AN\034?\232\342N\275\376\200\211>\205D5=};\303\276^\355\247\276\205R\037>\243\360\022\276\"\265\214\275!\332\217\275\226\237\202>\371DS>@Js\2765d\247>\377E\005?\203w\210>b\230\023\276H\311\353>}\370\021\276\365\341\210\275?nv\274!\210\\=v\265\217>\270\013\222\276\030]\330\2767*)?j\240X=N\241\255=\246\203\345\275b\363\020\276\304\216\264\275\260\226l>B\351M=\003\300u\276!N\034\276=\330$\277\245L\375>\001\373\211\276E\203\277>\375\244\232\276\362\260\314\275\005\247z\276r\214\260\275w\374T\276\351\235\250=F\250\027=\234.\262=]\027(\276\313\177\r\275\323Mj=N\215~\276Tl\320\275M\243\355\276{H0>\254\235\022\276\254\367\231\276P\275\006>\355\211\027\276]\r\037=\035,\251\276\200\217\211>\346\242/\276]\336\006>\n\016\344\275\305\004\216\276\001\023\355=\202\3557\276\034\315\350=\020\035\017>t\365(\276a\370Z\276r\212\303=\006\377F\275i\023z\275;a\001>}\334\371\275\013\274\316\275\247uv\2767w\211\275(\343\305\275\376\246U\276\005\030\346\275\205\0352>:L\343\275)\341\'\275\236}*\275\341\213\215>\'\243\214\275q\377\030\275r^\350<\024\245\007>j@q\274\315\313\221=/v\230\275%\214^\276\206a\206\275\360(\\\275\332D(\275\324\333\246\274\260\326p;4\331Q>\276]\313\275\231\243\007>\000\370\323=\303\374]<\244\246\004\275\373m\230\275\325v\007=\306z\025=%P\247\275\241\207\022>\254(\036>\373Jb\276\203\002\032\275s\322\t=\214\352M\276\377\233\252<\217\356=>\314\251S=b\020\232\272Q[H\275\\\342\233\275\224\007\364\275_\333\237\274\374\275\243=\336\223\341\275\266\276z>[\005\205\275MT\212\276\3402\300\275\000\017\217\275/\030\345\275\205\233\020\274\021U\021>\303\373\250\273_\336\037>\337\025\244;\027\356\001>_{\370\275\230\206\010\276\342\010b>\'\0242=\364\334\242\272\014\214\223=\340)L\275\356\032\212\2768\022\306=\367\317\026\276\023\341\272\274\232\372\360=\367U\r\275\266\372\230<\203\203\343=m\250\000>:\'\033>\223\366\236\276\352\311\026\276B\r\003\276t\256\030\275\240\333f\275\330H\037=V\033*=\377Ln=\364\370\003\276\204\271L>\321ek\274/N\n=\371\n\010\275\251\367\241\275\346;g\276f,\016\274\330m\204=Cn\002\272\227\261\240<\013\0216=\372\037\013\276^D\004>\230\351M\276@\030J\276\030\r\233=\n[\227\277h6\273=j\234\273\273\010\221r\276q\370z>vB\330\276\326\317\007>\254\031?\276\302Lh>\241\360O\276d\025\217=\367\\\204>7.|>\306\227x\276\354\325\226\275\370r\315<\313\362\227>\332\300\230<\355\364e\275X\032\264>K\304\337<\262\\^=\246\213^\276\342y\247=\375-y\276\243\340\223\276\316\202%\276M[G\276\271\026\257\274\031\267\262\275\031\037#\276\266\007\202\274\236\204\246\275p)\273=3\217)>Y\364u>\363\2179=\254\236\364<\n\256@>+\223-\276*\362\374\275\364\233\276>\213!\032\275\221#\215<AEa\276\257F!\276c\236*\276\243?\240=U\347\221\276\211\277q\276\300\266\304\275l\023\030>\342\265\241=>l4>*\337\357=\212\033R\276\031oy\2763m\317=G\336\034>\025\215L=\371\245\266\276\277\023\235\276\274c*>^\033\242\274\305\013\222\276Jz\224\273\035\004\222=\364\025Y=*C\264\275\202\nx\275\332\310#>\031sa\275\003L\356=\020\263><\265\272h\275\226\363\237\274\t\337\331\276\277\350\307=u\213\275=p\327\340\275\234\215\"=\0046\273\274\353\227>\274\r\233A<\023F\247=\221[_\277\250\346S\276I(\351;\366[3>z\354;\276K\224\207<\204I3\276\333~[>\035\331\032>\321\2566\276\242\023\311\273\014NF<{\314\244\275\323\227\202>\367tk>,42>9\207#\275\256\177T\276\266\371P>\336\215\226\276}(P>\255I\227\274L\344\375=Y\244\372=\306\253D=\306\260i=f\2200>\370\304\336\275f\243\037=\213l\223\276\225q\231\275P\364\213\275\211\270\353\275^\020\004\276+K\032\276?]\341\275)\213\265\274\312w\357\274\340,w\276\347\016\202>\223\357l\275\264\356N\276\315\277G\277\014\030^>\354r\341\275\007d\255=%j\223\274\023\323k\275\201\340>\277\210\035g\276{\234\360\273\017\235t\275\271,\315=\014\375==\307\343\270>\365C\346\274\275\366>\273\310\301M>\311\005\324\274\335\007\204>k\370\347=\203\326N\275^\256\364\275\327:f=\333\274X\275\362\322\033\276\231\275\240\275\010(\320=#\335\\\2764+!\277M\375s\276\321qF=*\322\025=v]>\274\345\306Z\276K}:\276\313\306S<,\006\330=GX]=\010\336\323>h\026\322\275C\370\251\275\213\325\342<8\352K\276D\223D\275#\376\215=\212\223\201<\320[-\274\021B\217>\335\031l\276$\234M\276\320\245O\276;7\">6\032\304\275\216]\201>\370\000\370\275\365\210\334:t\360\326\275\213\336\030\275\334r\233\276\324\221\"=r\n\255=_H\223>X\231\217>\201\273C\276\345i\232\276P\320\203=\301\304z\277\243\261\032\275\340\021T\274\331\220\033?\003\331\275?2)\026\276\335\221\372=j>\317\276\201$X\276;\230{\276V1\002\275\006M\302\2761\346\302?\010\313\303\275\3739\031>hI~>i\357\233\276\253\030\300\276\375\027\370=\256\016(\2738.\236\275;:\277\276W\010\200<\036\007Q>tHk\275TAa\275\3302\340\275\006[g\276j\337\275>\264\243\257\276D\003\206\275\265\267\206\276\0306\225=OEH>H\3000\276?2\205\276X|7>\221\0070?\234\r\245\275\363ac\276\371\343\257<H\021\203\274j\366C>\330U;\274\342\261Z\274\246,\273\275\027\271\014\275\016u\376\276dE\025?\220\374v=}\007\211>D\337&?\350V\204\274\025\333\n?0\215\220\276\242\242K>\025\251\331\275\014\303\301\275\336\331\206>\266\375P>1\323\307\275\3343E=\324!L\274\246<\272>\241\227x\276\353w\320\275\261\305\272\275\345\332\275\274\365`N=\036\261\327>\253\013\220>\333\214\034\276\222\364\213=\034b|\276\345>\\\2753\014s\276\000\215k\276W\022\352\274\026TJ\276\350;\003\275\027\3407>\224l\323\275g!\273=\035\032Z\275`l\222\275F\224\234\275\013\304T\275Q6\264=\305\207\343\276uy\002\276\374_n?4\241y>;\264z\274m(\245\275\222\333\215>\002q\357\275\033H\225\275\010\030\243<\372\317\360=G\3274\275,\3230\277\013\272|>\355\374Y>^\034\361\275\202\022\210=)%\301\274\007\341\213\276\262\363\246<_\010\r>\301q7\276\"\311\030=AZr\275\002\252$>w\203\177=\000\254\272\275\003\2224\276\277\035\034\2754\t\214\276E.\307\275b\022\220=\241Q\032>_\241e\276K\022^\276k\001\236<<\2552\276\215\264\233=F\325}>I\217\266\275\332\264\223=\006U\013\276\230\211_\274\354s\272=\374X0\276\320\341\013=\315m\314=\264\262/\276\244C\205=\374\202\356=O!><\201\257\250\276\357\277\013>8:\202>_k}>\003\255Z\276\375ae\276\376\r\032>\224p{>\215\262\300\274\333\304\'\276x\031\004\276\014\n\037>\010\003\024\275\203\317\227>\226\3236>\263\371\253\276\302j\274=\267\t\214>\205;\373=/\362k\276\212\246P\276Y\362\005=\200z[<\202\0176\276bY\335<\363\0164>\321\246\260\276\262\255c\275q\005\202\276\322\375)>\220(>\276\034k\222<\245d\330\275V\370*\276\307\006!>%L >\273I\000>\036S\323=\322\332E>\205\342+<\031@?\276\230q\007\275[1\276=\367)\324=\345h\244\276\366\253.\274\354f^\276\251h\336<\021\304\260\275Y\227\316\275\202\014\213\275\217\033\260\275f\t1\276v\253\203>\256;\000\276\233V\014\276-\272\261\276p\324T<,F\327\273<\336;=*\225\373\275W\\\371=\200U\224<2\014Z>C6\206>\266\2277\277\355f\305=\014\275\213\275=\"\256=b\340f>a\254\272;=\005\260=\214\226\251\274&\307\216\275\023\006h\275\302,\357\275\277*\326\275\257dw\275P`\210=\212\031D\276\256I\014\276\343\367\204\276\323_\"\2764\033+\276z\203i=\035u)>\275mS>\311`\315\274\266\247\310=in\021>\301\212\000\276\327|5<\033\r\355\275Q\240\355\2730p\031>4\027\r>\002\335^>\t\226A>\245\\\006>\345w.\2763\315\254\275\240\334\265=\001\231\201\276CIY\276^\207\267=oS|\274]Y\365<\301\327\356\275\363\302\222=!Ur\273$]>>\021-=\276\371\307\310\274P\035\021?\211qS\275\267~\366\274\272B \276\274\375\201>\334X\002>K;_<3\001@\276\276\204\247>\234\230\227<\001\365\364\276\211\037\231\275\236g\223\275\001:\304<\014\010@=\236\266?\275\274\245u\2751\240Z\274l\031\373\276T\376i\276o\346\355=\355\345o>\002\316\235\273\277\034\231>\303\3055\276\324!$\276\tkE>\332\253\215>\366\202T\276jM\253\274\207\325\021\274\243\024\221\276\345\320\024>\002\301\217<\315\235U\275T\315\337=j\225\210>&\211S=\335{\277=z\321\">\'\340\036>\250\303R\276f\"#\276\320%\001>\325\027\023\276\271\010\313\273\316\212P>m\376N>\202d\021\276\316\037C>\362~\205>\277\352@=\30029=\250\2370>]^\277\276\007\245\275\276b\007C<\024\212\230\276\307E\326<\243\025\\>\2744U\276\232A\002\2756U`=\006\032(\276^O\336\275\315Zj>*\204c?\006/\036?\245g)>;\243\020>\0163\260\2745\233\014?\227\350\'>DR\227>_H\277>O\254+?H2\330\276}\244\300>\205\033\020?\243\264\033\277\266\364\372=\251\216=?\225\374a=0\251K\274]\000*?]\254\"\277\3662\300\275\235\220\025\277*\306\217\2763\035\340>_t\332>\210\003\352\275\337\301#?\240\252\344=\260\\\261?\360\376\266>\323\326\002>\262o\370=g\252~>B+<=\251\317\251=\236\224\250=k\257\013\276\237)\246\276\240r\206\276&\004\226>\371;\370</)\024\276\r\211c\275\261\204?\275\263#\277\275z\253\327\276[\026\213\276&g8\276/u/=\033Z\207\277\345\233\022>\253\310\221\275\243\251,>\342=\027>\214\362r=\277\340\223\276\262\270x\276\353AR=\344\337\207>P\271\210<Z\272\001\275\t`\377>\025\341,>\226\241g=\375\230\033\275\233E\030\276B\345\336=\242\2374\275\233\367 \275\331\211V\276\222\247\307\275pD;\275\3406\367=\276\254R\275T\207\252\275Dx&\276\331\360B>128=\376\022\224<\306\214i=\363\031\r\276M\333\266<\371y\367\275&\342\322\274\007\231\343=m\217\245\275\3767\375\275\274<\020=l\266\242\275H1\001\275\262\005\211\275\215Y2=\273\014\216\276^\350x=\307\\<\277*d\371=8I\353\275\002E\201\276\024V6\276:\325\005<\'s\035>FCc>*h\245\275PN\260\274\253A,>\2216\361\276\305\004\322=\004\246D>U\324\344=\300lY>lIa>\227\333U>\304\270C>h\313\335=\326J\201\276+M0\276\036\253\266\274\335\027\025>\021m|\273\033\264\t\276K\373\030\275\3263{\276e\230\262<\275\372\365\274\215i\271=\364F,\276\273LQ=\307\315\332\274\341\217\232\276\217\312\344<\344\236\350\276\273FB\2767\216l=\362\337q\276\013\250q\275\243\214\005>\323\331\214\275\202\032\256\275\201\262`=UY\016=\2576\035\276k>E\275=X\233\276\024P+\275\352\274\316\276)\005D\275\321\n\260>t\266\010\276\333<\222\274&\324\215=\353`\237\276\031\022\334=\325\226\266\275\033\353\020\275i8_=\273h\341\275\265\360\365\275q<\237\275\365\272E>p7|\2769E\311:7\235R\276\244\256\314\275\357\242\021>%\007&>p\254\201=lu\265\275L\201\246>\030Y\224\275\010\370i>`\301.>\242s\300\275.f\227=2\214\027>\327\267\277=\330\363\234\276a\014\001\276$\346\347\273\210?\213=4_\026>M\357a>\220O\242:\327\000F\276\233\010\270=?J1\275\230\231\271<\001\347\273=\321\254\303<f\304%>\245t\331\275\215\311\344=\266\336\316\275H\220\333\275\262\323\227\275\245\177\034?\224|$>\357\362\317=\2049V=\320O\276\275\230We\276\273\256\353\275\"\3027>lm\244=\360N\377=\277\204\214>\3629\243\276\237$\211=!\371h\276]\304\276=\330\037\272<\222\224\257\276*\360\036\276,\206\271=D8v\276\212\353\254<\233\351<\277\325hh=p\306\200>\017}<>\220\004\252>\240\336f\275o|\260>\3138\037>t\263g>k\251I\275`\020I=NT\364\275rz->\014Q:\275\203\016,\275\276\300w\276[\377\006=3\007\216\272\341\364a>D\330\022>\340\363\246\275\206\031\323=\337k\n\276\373k==k\363\304\275\332\344]>\222\004\305=\022\223\253\276\241X+>\306\236c=\033@|\276N\344z\275_C\344\274=L\024>\341x>>v\372\241=S\271\363\274\245z\202\275\025\230\363\276\"\244\201=\216C,;L\006\326\275\227\017\371\2764d%\276t\3123=T>\225\274.\360z=Z* \275Z\246\357\276\225G\200=\266x\321\275\352\312[\276r|\217\275\213\2000>\036T\226=\231\262\300\275\212#\325:\255\366\327<e\262+\276O\034\225=p\217\014>\340\t\232\275\256T\314=!\365\200:;Z\365\275\200V\242\276\223\242Q\275\302A\243\275\032L\307=\3250\243\275\370\232y\276k\321\355=m\023\017>`\324\375\275\201k\033=\246\372\242\275\243p\342\275{P?>\202%\r=\223\252\336> \221\252<;\327\374\275\314f8>\r\343m\276nO\234>\030\373\022>^\230\203=(\264\263\275y5\231\275m\277\242\274\nq\252\276\313\222\231>b\360\206=U[t\276j\2311>(\261\254=s\263\224=\346\024\n>8\366p\276\224\312H\276:\3012\276>\242\025>\214\271\272<\337\276\201?=\323\002?$\033\037=\264`x<\003\340\263<3\365\311\275r\231\340=\356\013\203\275CZ\026?\357\262\237>\223e\221>\235O\221>\3461$\275\355?\255\2758\241q\276&\216\023\275\360!f>y\303I\275\006V\264>\'Y\312=u\240X\276Y\272\254>\337`\354=U\\\307\275\205!\366;\021\027\233\275\202^w\276\247\336\313>\217\365O=\371\2630\276\363\353I\276&\204\315>\023b?\276\274\214\364=p%\241\275B.\335\274\355\201g\275\333@\240\275\"y8\276\277R\374>4\001D>\356F9\276\002\222\231\275p<E\276\251\221\225>\320\230\212>\ri\006>\225?\301>_\316A\275/\250\244\276\270@\240\274\315[2\276-P\203>X>\245=\253\241h\276\245\216\210\276!\246R\276,\035\026>\223\303\017?\247\023\277=\217[.\276e>\206\275d\232\001>Ht\246>\267\253H\276.\303\013>\2666\205=c)G\275\326~\207\276\366\306\026>\376G \275\215\304\010>\023\'\276\274\323\276p\275x\302\334\272\375\335\017=\372HV\2750\004\020>t\266.\276\323\307\007\276\367>\235\276\034\224\233\275+\370\346=\027\204O\274\206$\\\274aM\326=W\005\206\276\224\200\000>E\317o\275&Pu\276d\026\006\276\325)5\276{\341\t>\267D\337<I!y\276\370<\316=\340Z\246\274\306_j>\343\254\314\275\200\200\273\275\267\217\253=\373L\226\274\206\227\220\275[D\231\275\002\370\331\274\330\350\206=\274j\026\276[\336\352;[\277N\275\306\'I\275\3128\254=\203\325\001\275t\260\245\275\371_\244\275\010\303R>\274\254\375\275P\024\207>\362\007\326<\303\217>>\302~Y\275\346x\354\275\033\226S\276\207\006\020\276\353`N>SX\007\276\202\270\330<\347\317\267=\031rY>,\205\217>\225\000\222\276\250\2754\276F\003\370\276&\203\010\276\212\002v>\010Q\014\276H}+\2764%\223>\247\310\320\276\253\331\242?\311b\002\276\216\n\204?6\375\201\277\214-\022\277VL\023?E,W\275K\345e\277B\300\365=\006\177\'\276\014\240\272?\212\315\345=\003\326\n\276n\344\361>\021F\336=\323\317\010=j\222\002\277\247\216@=oJ\020\276\330\034G\276I}\016?qc&\277e\223S\276j)\233\276\320\001\n=\352\230\242=\251\245;>o\370\020=\357\364+?{\344\311=\307\346\013>*\203\371?\332\266\204>\310!\234=\364\251\311\276^\232\233>P\344:>\n\326\372>s\312\223<\246\273\263\275\237\3027\276\325@\200\277\324@\"\277=o\330>\025/Y\277u\2322?\346\324\026=\256[\022><|\273=\227(\335\275\326\234\252\276\352\333&=\0161R>\240\3019\275]m\300> T\325\2758\370\302=\307\357?=\231\211\222\276S\254\230\275\213C\211\273\202\244B\274\353\243\204<\243\377\034>\021\347\332\274\250\031\205\275%\241\237\275\033\340\300=([a=l\205\005=F\250\234;\020\213H>\rv\253=\317\000\243\274\345\253\006=\010\3239>\231b\317\274\332\200\223\275h&\310\275\242\3027=\327\032\304=0\210\367\273\353/\260=r73\275\017\240\230>\306Qm=\035*f>\251Q\r\300IBx\276\246\334V>R\023\220\275\257\215$\276\207\\*\276\260\323\237\275Z4\270=\242]=<\n\335\350\275\356Qd=\360\262\343\274\215&c>RbP\275 \2407\276\300NG=\212\034|\276~\352\346=\273\025\300<\035*=\276\267%\342\275z\204\327=\356\237\370=\005N\232\275 Kn\274ev\203=\365\336}\276\3126\370=\264\213;\275\316\324\205\275.o\331\274\271\007\253\275\334U#=#\025\024=\330\210\344\275\376\374?>\376\253\005>\006\017\231\275\250V$\276\306q\253=&+\325\274\257M2=\252\251(=t\026==;\376/>\027H:\276\226F1>9\300\313\273\364\262]=E\3776>\313&\031\276%\t\025>\321\265\234=F\037\320\275>S}>k\\\206>\006\032!=<N:>\336\250,\274n\032\246\275\002\020\236\275T\327\317\275o{\256=\3210\024\276U\242\300\275\357z\251<\350\341\037\275*\027\316\275\260rv=\241~?=\216\023\006>\225\3439=\302\325>\276\260\372-\276\221\217\377\275\367\240\007>)C\214\274=\312\261\275T\020\250\275\3517\361=\225+E>\205\300e>\361\256\274\275B\'\233\275\245\356\367\275;G><\230\275\032=\217\034\026\276\323\2155>\017\234K<m\322\233\275@\254\372\275\203\247\025\275\320\260b\273D\327\">\322\001\275>:Mu=\344c\003>\235y\310=u\010\213\276\347}\n;4\034\223<-ky>\343\230l>)n\225\275\253}R<=\370\213<\354\027x>-\247\354<*n\010\276\214F3\274\351C\321>\014R(>2\001+\276U\364\324\274\3138W>Aa+\2755\305M\274\237o\364<\346\341\017>m\245\304\275\211\323#>\254f\301=\307!\211\276\246\033\354\275\214\3654>y\225\362\275x\232\311=)&4>s\345w\276x;Y\275\210(\251\274Ln\000<\241\026\340;\266\227z>R\367\276\276r\366\201>m\247A\275\304\232\247=\225\211\215<\370SR\276\030\362\374\274x\0036>\215\234\212\275\027\240\224\274:n/>\342q\'\276X7\345>\025\034\244<?\206\362=\233\030H\277\213)(\276\342K\200\275^\244\034>\374l\013>\300\330z\275\221\026A\276\346\325\334>$\341\367\276q\010\231\275G\354\312\275wgl=#\241\034> \r\020\276\223\225\252=r\213\236=+\227\351\275\264\250\033\276\314\213\236\275\023>\346\275\352;\347<W\364\203<\326|\203\276H\323->\326\371$=CD\226\275\341%\244=t\205U>\364\306\n\275\030\017/=\004\036\267={\235\035=\334a\210=#\321\245=\205\332\232\2762\223\241\275\010\230\270=6\244\244=C\314\243=\350(,>*Y\322=\364\262\004\2763\324\t\276\031\325\024\276\354O\037>\036zT=\232]f>\301Q\024=pz\037>*\215\306\271\"w\025\276s,\207\276\303.\274\274\204\362\202=\036ag<\211\231Q\276\363\020\035=\023\360\361:c\271\324\275\327\255\230=w\213\273\2740e\361\274l\356\251=\002\022\303\275\223\\t\272\347p*>\007hQ>!\026\340=8<\345\275tvz>\226(\350:+(\016\275\312\324\027>h\225\030=\021j.>~p\013>q9/\275:EI\276\205K\n\276m\271\t>A\207\n\276\231\034M\275i\014\312<\352\360\007\276\340f\032\275C\017\267\275K\273\025=\026\220\016\275]k\020>\014\305L\276\340\375\347=\311\231\233\275\253\226\026>Q\320g>W\244+\276\311\032.>B\275\016\276 \203\222\275\000\350\246\275\275\346\r\275\263\243\371=\362\000\245=1\265\347=\014\335\003<\274\206F>j\234\343=\243\022\035=\246\202\230=\342@_\276\356\0326>#d\240=\261\335\264=%d0>\241\000\277\2755\024r\276;HY=J\335H>7}\000\276\352u\323=\020\235\260=G\024\347\274\272\342\262=\007\003\230\276Wb]>\212\262\n=\006\304p\276(\375\\\276\232\331\006=\217\213\264=9\221\030>\3511\230\275\310\222s\276\360\266H\275\322\304n\276!\233\345\275\027p\336=\262\226\203\275P{\325=\277\346\023<\362\257\034>\327Jm>\330\227N>\301\221^>\256TM\276\231\215\201>a\024\367=;\303\212<-[O>\234\251c=a\3746<=\024\203>\226\342=>T=\376\275\225w\035>\342\235\005\276+\3516=r\305{\274\021\234f\276M\2625\276kJ\377=\016\355c\276\020`j\275\307p\324\276\255\001\243>~|&=\274\257B>B\336\201>\373.\202\276\344\232[>\223\002\207\275\323\177d=7\257\260\275\311\227#>m\020\375=\262\233H\276C\010+\276\256m\263\276\214FR\276\336b3\276\264dj>\024*\227=\204\315\">1Y\277=\230\216\253<_h\232\275\315\034E\274$\247(\275\220\337\035>q\346\252=5\023o\276\273^\274\275\202\273)>\024v\311\274$\000\203<\024\t\005\275\377\301\031<\027\373b\276\216\300\272>%\n\005>\177\032\247\276\014\376\354\276\317\321<>\'\0058=\331vY\276L<\035\275\2262[\275.\210\212\2740\033\302\275C\305Y\276n\251p>QH\233\276\264\334\023=X\247\031\276\253\264\237>.!\004\276\261MJ\276\304\252\313<\3704\217\276.\316\231=QW\326\274\262\2054\276*\232p>\006\325\255=}\"\240\275\203\346\357=\251\370O\276\205\364^>\330VT\276%q\276\276\366CG\276n>\233\276RZ\226={\367\006\276\362m3\277\277}\370=\3211\226<d\263w\276U\n\036=W\025\324=\n\0216=\013\211\002\275~\323V\276\266p>\275\216\300\315\275\034\307\220\276\0135\201=r\360\251\276_M\316=\335#->X\370\031=\340+K\276\275\361 \276\216w\363=\345\351\020\276\220\375\236>\271<B=\003\254{>w\257\315\275\033z+\276\275 \214=\275\240\244<o\205\013\276\250!\001>\307\312\315\275p\334\314\267XV\256>\346f\261\275\354\215\322\275?\230\243\274\nF\205>j-\345=\n\351k=\366\342q>]v\227>SW\036\276\246\344}=\346\252\330=\253.\202>\373\242\220\272\022h\033\275m\225\214\275\216\354\374=\256\327\377<Z\337\031\2767\342\014>\271 \001\276YM\305<\254\373`\275\304,~\275t\374O=\350\033\203\276\030\007f\275\337\355\304<\217\001@=\315l\024>`n\246<\277\331Y\273\342\305\354\275Y:\200>\303\203[>\014\247)\275\300\003\204\275\004\030\363\274 \354\310\274{\342S>\266a\215>\215\375S\275`\231L=\261\251\226\276\361\320k<\266\341\277\276\243\361M\276\353ya>W\347\376\275\306w\210\275W\366\344\275\221\205\251\276t?\253\275mK\032>\206\005\247=\203\302\366\275\n\367\333<`\201[\276\233l*\276\351\003B>C\363\217\275\341\377\213=\336x/\276\277\215\245\275\205\014\\<q\014\026\276r\336\205\276Lv\t\275\362\242\250<\311\216n>G\201\277\274>\307\341;\264|O>Ic\245>z\t|\276g\276s>\223\003\342<)U\010>\322\021\271\275\305\363\240=\260f\033\276\337\223\352<\202\023:=\207\263\301\275\\\250\222=\004\262\251<\247Hp\275\370\324\310\274A\362q\276\266\300F>vI\371\275\034v\213=\261\331(>\344\212\367=K\304\t\276\357D\377=\307\266\275\274G9\304<%\034\253\274K\344_=y^E\275L\265i\276O\251\n\276\356\221\372;\210\016\370<V\325.\274}\365i>\273y\213\276\241\264\230\275\300H\001>\023{\220\276\256\223*\276\024k\333\275\277\t\023>\357-\230\273\2077\364=_\t\316\274^6`>4\251v\275vAl\276\201>A=H\0368\275a\003\\\276D\321\022\274\313\216+>\341\214\310\274\007\204\003\276Sm\217\273O\357\200\2762x\346>\247\2527>*\326\200>\277\036\203\276K)$\276\006w>\276\273\356\313\276X\231\356=\343\241\357>(\372{\276\177\211\367\275\354qj\276\224f\226>\210\374\334>\035\227m=I\264\233=T\240\331=N)\004?\301\277k\274\202\242\244=G\340\013\277\255\230l\275zr\001\277\370\307\026\276Y\265Y\276C\033&?\020\220\221\276(sK>\326f\355\275\241\033\275\275\267\n\204>\037\005\255<\231Z\266>\357E\324>*@v>\017\253k\274H\202p=\000%\353\276\222O\222\276\272W\270\276\270Y^\276\005\325\307\275\205M\360;{Mt>f\216`>}\351\016\277\311\340\227\276\004\203%>\017\333\036>i3\001?q\233\244>\004c\201\275\245x\t\277\351\317\310<\325\275\316\276\340\243\024\276\177\206\200\276\264]\017>\355w.\276\rq\277>3\217\212\275\211\211\305\276\034\010\220\276\365\020K?\346\263X>\376^\232>\260\325F>\033Jd?\006\277\251\275\326k\323>\367\257\354\275\024E%?Mo\230\275(;\223?#1\033\275\"\005X?#\206\273\275c\rH\276\273\261\r=\344d]>u\254-\276\224\272\262\276\232\343 >\205\203\261?\326\323\307\2767\325\362\275\340a\277\275\225\340\271\276\020\014\376\275}\370\262>^\340\336>\216\335B\276\024U\313>\234G\252>\010\253\315=\3513\004\276\373\330\254?\3769\370>\236O\037\275\346L\270=\376\252\274=\202Y\216\275\211M\325\276;\325\211\275\261C\275>^=\372\273\235\3122>\231{p>Q\306#?\002\351\330\276\304\335\310\275h\331\304=\372\323?>R_\020>I\263\235>*\202\221\277g\255\215\276\211[C\276\032(\227\276\346\304\347\275\275\025\005\277j\211\220\274+\364\255>\224\257q>^=\201\275),\023\277\273\177\257\276\024Tm>M\352\264?\025\'5?\374*\360?\343\261\241>\317\335*\276\037\236\352\274\272\233\331\275\2662#?\365o\243?\364\231\027@\036\272\362>\352[p>*0\223?\022\262M?96q\2772\023\217\276\270T\352\277\325\225\245\277\222[]=\205n\375\277q7\330\277X\001\202=\375/\337\277\262L7\277*\2605\276\376}\237?\316\265<\276]\2421@\244\233E>\244d\241>G\303\321?\020\2259\276\222\360\223\275\322\373\346>]m\037\276\233\313[=A\002\233\275\312\375s\277\231\362\006\300\302\022\010\300\244\317X\276\013\364\233=\006\334A=\260\007\301?\034\035\207>es\353\277\330\225\030\3009\253\037<\331^\016\277EL\371?\322P)@K\304]\300\305\277\221\277uv\026\276\t\264\016\300\361\372\313\275\344\020\213?$\260p=\024\276\273>3/\327?O\341t\276\315\037\206\277;5\025\277^\225\362<\315\264\322=\224.\010\276\005w\\\275\226\030?\276\022\n->O\004c\275\325\367\224\276\373\003\210>\020Z\362=\246q\275=2X\231\276:\341\273=\3716=>C\035\271\274\035\272r\275I\322\234\276\357N\364\2751.6\276\\\036\367=\332\360M>[\356,\275 @\003=C\373\022>|\t/>\246k\320>\325\360]\275Ak\266;\0208\220\275\317\3500\276cx\226\2735\225\216=\315\356\330\275\334\355\233\275))t=4\267\214\275X;4=\207J\n\275\361\323\306\275\3067\247=\234A\345=N\340R>\245y\261\273\014\341\233<\207k\345\275E\255\032>\240\027\227\275\363\232,\276\323\314\272<\020z\216\275I\206P\276\332\267\342\274\302o\231\275\274\374\027\275jZ\021\275Y\376L=\033\373\251=\202\326\035\276od\035\276\004]\262<\371k\345\275\021eI\276\312o\n\275@\363\352=\006\016\253>\351[X\276\241\211\225\276\010j\005>\235([\276r.\262\275\355u\350>r1\357>\256\361N>\274\355>>\005b\223\276\363R\362=\322\376\364\275\272=\321\276\255\022k\276\025\322\263>\213\216\275>\211\rF\276xI\022\277so\310=9M+\277\030\356D>C\022\206\276\371\3340>~\303\353=F\221H?(\305\244\275X\221\022>l\325\224>\016x\221\276\236\013o>T]+\276\220\240\002>\255\031\353>\354\206(??S\027\275\205{)>\356\034\031\275\344\2347\276\344\307\305>*\315\244=Qt\n>\360 \233=\327\010\037\276\255\242+>i\024\217>\332=\223>4\252\246\274k\336\361=\321F\264\275hu\246>\021\222\356\276\r\373_\276O\340\246>\210C\025<H\330O=\210\351\371\275\254\275\004>\375kF==}\033=\375\320N\276\343\341|>\230\304\272>\230\357P>\216a\356\274\342\336\013\275Qy\227\275\355\327;\276\305-\024>a\002\321\274\202!\023\275\374H\'>P\356\r\275\272\004;=\305\273+>h\321\020=E\344\013>\023\036\031=\"\374\215=\243|\034\275\255\364O\275\307\332H\274y\210g\275\271\367\224\275\301Fl\276\220q\374=\351e\312=a\274&>&\021\331=JK(\275\243\030(\275 &\316=\017P\200=\021\275\212=\360\267\203=\270\355\376=\257\2613\276sO\274\275J\343\375\275\236\310\223\275\031\260\027\276F8Y\275#\354\020=lw\n9z\325\316<hMA\276\0130%\276*\'\334\274\326\224\005>\'\304\300\275\262u,>0\360+>\\k\205<\265YR<\031=\001\275{\207|<\361\3172>uo\265\275\235$z=\033\343\217>Y^F\276V^\261=\362\334}\276\004c\010=\265~\307\275\317O\030\276Q~\201\274k\237\377<\033\007\202>\010\326#\276\247\003\300>&\214\351=,\214\246>\014\303 >i\005%?\333\222\333\275xo\320>\250\321\315>\361\356\244\273\213\205\204>\210\211w\276\350\030\271\273\354P\240\274\306\205\360>#\020%?B\232\t\276\217\235\215\276SA\371\275\352Q\227\276\224\214\367\275\206?\376\275\005\033&=R\206s\2752*\266>\354S\004>\374\031\212>\335\232\216\275C\r\314=\267I\324=#\324L\273\266\203\275\276K\233)>d\215\311>0\rD>g\317y\276\032\233\327=\250\006\347\274\205Oj>>\t\004<`\355a=\323\003\272=\335\226\214\275l\223\010>\345\356\310>\001\247\264=5^v>JX\330\275)^C\2736nf\275\355;A>\036\263\354=\342C\201\276>C\023>\227\021R>\251\352\300\275\214\350c\276\332\362\013?m\"\217>\013\324\010\276Kl\227\274\2248\240>\n\300.\276z\332\262=\372\245\031\276\372\324;\275\"\002\224\275[\336\201\276\253^\272=.<7=\343\200\035\275\225Z\323=G\222\t>\257Xd\275\3610U>\232@\264>=\033\033>T\023\001\275\001?r=\356MZ\2759\010\260\276\371\333\236\275\267+,=\004R\204>\036\351\241\273bLI>\331<s\276\201\371\241=\217\3431\276d\233\263=\234\300\027\276E\240y\275\023S^\275\356_\314;\255\200\322=\np\210<\344\333\">\377.\314\274\314\272\344\275F\005\365\274\306\274\221=S\371\240<0\023\303\275\000ua>\263\032\314\276\205e.>\246\346\251=(#\006>\203n\361=\315\013\003\276\177\177\266\274NT\323<\330\206$\274\241\302\022\276\372\323\017=\030\367U=\346&\226\276eX\232\276\313!%>\264\314\300;sG\310\275\204~\200<,\r\202\275D\373\023\276\332P\241;4\275\254>\'B\004\276KC\274\275]\352/?\272\272p>\334f%>\241\211<=\024\261\276:ER!\276N\177\207\276>\375b>\343\007\265\274Z\035\324>#\252N\276E\306B?\332(4>\234\216\263\275\322\262\263>\315\314\223\276\321\031a>\3106\033?\216\214\017>\321\260\266>Z\036\352\275D\347\301=\210\341)=\354\037\277\276\014z\000\277b\305\005=\020`8>\344\356\245>\376\363g=1\353\343>G\274\017>\247pB>\004\234]>\237\246\306>\311\346\014>te\246=x\372\032>\300\314\273>\222\316\234\274M\023\330\275\031\310\302>\341\2509>V8\003>\341/\016?\357\364g>\005\261~\276u\n\263=5\021];\014\006\017>\337*\221\276\202\256#>\202\347\261\275\356\033\247\2761\217\370>{9\372\276\303\2000\276{Z\006?\235\256\276=\002\321>>\235 0>\233_\201\276E*J>&L\031>\306\\\374<g^\205>\226\307\310=\267D\017?BS\003>R\250Y<R\301$><\236\357\275F\355U>\363\376\223>\035%.>\355\326\263\274\230*\300=\335>\177>6\007&\275# \300\275\336`)\274\3217\250>\313,9>\025\241\346=b\371O\276s[\262\276$\353\304\274\344\013t\276\177n$>\320\344C=}|W>\350\240\273=B\247\302\275\340\251\372\275e8\333>\340\363D>\007Tb\276`p\247\276\346\314[\276\265\330\032>\026\202\202\274\037\261\316\275\245\305\256\2757}\366\275=\3001\277\022v\t?q\243\252\275\304\271#>\235W\263>\032\237b=\346\231j\276\333<3\276D\342j<D\362\337\276\360\361\351\276O\345`\276\334\377\024\276\357\314\251\276\245\240\256>\213\352\270\276\353\\\254\274\367\216\027>W\013\217\275\000i\361=$\357m>3X\300\275ta(\276*\026l\276\'\346\225=OO\231\274\020\261\257<58\240\276U4\207=\0302\203\276\226\211\301=\351\000\020\276\314\337\341=\320\306j\276\242\006<\275\205|\333\275\\.\226;\320c\204=s\342\007\275;\270\315=~\354l\274\363\277\336\275\017&\302\275\323\217\232=iW\032>C\276h>\022E]\276 \206\031=\270\372\277=\204\313S>7\014#\276FE<\276\260\370\311\275\242F\253\274\227O\351\276\030\362B\276\326\371\377\275\021\014\272=mj\224<\264\202W\276>\344\265\274\024;A=\304uB\276\255\222?<\224\336\341=x\014\366=axC\276\225\306%\276#\237\004>\331|\325\275\004D2\276\346e\375=\353\313\202\276x&\t=\327\323*=\3775\211>\311\256\n\274\373\321\364=\2279\206\275\364l\346\274\004\211}\276\t\364\203=A\316\253=\346\"\256= i\234=\322\200\334<@\362\243<\240$\270=\256\207\376<-P\205>Y;\215\275C\027\224>\024\311\250>\344hB\275\314\214\035=`\335\326<Me\200>A\325u>\2555B\2767z\022>-\371\300>J\340\301=\306:\273>5\205\022\276\370a\020>0V\256\273\210:W=\3221==\014K\366\276\324U\265\276r\014\017>\323,\231\276\366Cs=Q\035\013>\027p\207>\2113K\276\242O\010>:\006\311\276V\277&<\313.\020>\313l}>\210B3>\224\006\221>\031\264\205>2\356\217<\303\374#>\264ij>f\306\232\276\240\177w\276\336\200\223\276\0240==yc)\276i\252b=2{\352\275H8\212=\215-0\276G:\036\2761wC\276\032S&>\004N\254>\274\273\360\276;a\333>\3435T\274Sz\366\2763$f\276_-L\276\243\262\204\276\221,m=\306@\253=q\231|;\252eL>\261\213\005\277\205 \005=\000yE\276*!f\276\000\3610><\324\027\277\244\200\022>\241\351\002\276\t\230\001\276\323\312\233=\370\252D\276\317\271w>\310\271\374=\345\327a>\035\277\233\276\260\357F\276{_\000=\302\224\270\276s\250\245\276\344\315\235\276g\323\205\276#\306\004?\365\201\'>\2130c\2754hD>\315\200\330\275\323FY\277\324b#\276`z(>\301ce=\212\233\352\276\227\021v>\367\264/\276\003\036\263\275\274[\356>y;Z\276Bc\313\275k\210P\276<\334\256\2741\315\234>\312Z\236>\351\345\351\275+\242`>\367\224\371\275\262\n9>\231\355\225\276\340\312\351\275;]\035>ml\221>d\315R\276\345\026\301<,\221\017>\232\314j\276\306\214\364\275\201)\016=N\221\310\275;\206\327=\371w=>\363V\231=sE@>zP\215\276\245r\031<\016vF<\305\316\304\274\343\257\214<\221\206a\275\023\013\204>yN}<\0369d\276\260\212\016=\252\317Z\274u\001I=\200\332q<\364w\013\276U\032!\276\336\246\272;\227g)\276\233\020z\274.\016\017\276\357\322\316\2753\207\242;\261mD>\242 \321=`G\315=\307\215\214<r\277\247=\252\265K>\354\270\276=P=x>K\315\201\274\330\275\321=\377ZW>\210\335^\2769\212\031=\350s(\276\237s2\274\306Eh=\245\244\000\276W8%>\260\355\367\273_\372G<\027\230q>\320\3275\2762\205\021<c\021o\275\001\264N>\251o\372\275z\2368\276\327\304^\276!\300\030=Z\004O\276\013\317\314<\024\351\224;\237g\214\276\374\222H\275\246\222\271\275\316\323\241\275ie\223=\311\021\350=\330j;\275\036M\027;\354g\253=+\315L=\241\206\202=[\265k\2765T\232=\266\266\206\276m\2518\275b\366*\276\022Xq\276\241^\234;\265\263\300\275m(R>\214\201o>,\324,\276mt\">\016\322!\276\342\330D\275b\363\271=\303\243\017\276I\246\315<`\3179\275s\353\352<\206h\034>\003\207\205=`\336);)\327\020>\354\200\247>j\346*=\371\253\000\2764.W\276\036\246\366=\273\377j=e\346\024\275bG\300<\250\360\205>\210\2765>\305=;>mke>3-;\276\237y\226>Mf\230\275>\001\232\276`\256\276\275\302\266\304\275v\263\200=+u8=\017|\302\276%\273\313\274k&\002=\272\2643\276\226\223~=\270\323>\276#\364\345=\271%\010>>]\277;\356\220\236\276\315\377\230=M\344\245=G)\026>\344\302\231;\235S\276\271J\371D\276\'o\023\275\\\366\022\275\004g\356\275\327p_\275\007}l=q3\235=]qU<S\203T=\317\364m=\270$\200=?\007\004>\222\3517=\036(\245=\301\277\274<\353\314\363=\367\210\330=<\201\210<\007\213\373\276*{\025\275=\320\331>\237\261V\276U\261\023>\363W\306\275\346/\323>0\226\232<\340\233B\275\n\263\330>\013\000\\=\207i\006\276)\r`>\033b\201>]Z6\276x\343>>hc\000>\316\256t\276X\0071?A\250^=\337\225\201\276-\310\r=\255\007\022\276\361?$;:\\\211=+\003W\276\\\202\334\275Z\034\336=\243\260&>\371\003\342=\234\250\246=\tm\246\276\310\310@\275Ac\255\276!\220\033\275\351\201D\276\367\177v<C\016\250>\323\246\245\276P\204d\276![\023\276Hb.>\353d\361=\325\235G>\006\354\216>\317SW\276\010M2\276\302K\014\275<1\247\276\365r\275<\234~\311<$`\221=S\301\203>\016\332\211>&\007Z\276\336\020\022\275\026\311\207>J\255\007\276\006\256#\275\006\'\277\275\336\361\031=\242\333\271=\2610K\276W\030\306<b\230\206\276\330UU\275\254]\241\275\316\302\220\276:\243X>\311\305h\276\222v\325\275a\271u>\020(P\276\030\026\302\276\367\r\016=\353N\005>}\001U=\032\225\355\275o\370\373\275j\324\'\276\340\310I>.\262\231=\230\350\315=\252\211\214\275\221\266\245\272\340\225\365\2735>\241\275\017\235\222\276\003\361\206=\014\002L>\036\302%\276\203\337K>\037\005\235\276[T\004>\252xn=\323+w\275F\215\r\276q\001&\276j\001)\275$\205\213\275\337\257\304\275J\024\342;/\2111=\023.\211<p\236\343\275\362\265\311\275\366\3479>\254\236\320=a#\271=\317e\231>\304V\371\275z\3410>\3709\r\275\034\354\222\274\375?\013<\345\256\204=:#\317=Z\305\021>\'V\";c\016\361;U\234\305\275\031h*\276\232\337\205>\032\3210\276I*\217>7+@\277\340>\357\275\260,\226=&\351v=\027%[\276\347\035<\276\341\364\300>_\365q\273\264\303V?PZ\000\277\222\000\017\277\032K\365=\010r\334\276\302dg=\020t\212\274/SA\275\231\256\007?\267o\r\276X\354\274\275x\177\352>YhV\275!r\367\276\244g;=\201\003\234>\021\320\005\277\026j$\277\3464J?\357\264\202\2755\320\304\275\357\320\223\276\253\230\'\276+\353\277\275\366Q\010\276\023G}=\252\262\301>\326E\363>\246\216\n\2774p\217?B7*=\277\346\253\275\265\234v>tp\353>\3233T\276U\240\206>\000ep\275\262\351\007\277\201bO\277\t%x\276c\253\030?\251\223\373\275FR\213>\217/i\276\033R\201\276>\212\240\276d\347\250\274A\305y=atI\276\220\266\006=o\315\214\275 \245!\275s\004\352\275d\224\354\274\233\316\340=N#L=\023m\032\274\274S\247\275\207\372\206\2767i\002\276\254\256|<\255y\356=\260\035\340\275\255O,\276\016\322\211=$v\205\275\205\265f\276zbY=6\254\n>\017D8\274\036\366%\275|\263Y\276I\003\020\275\3557\014>b\355Q\276\310\343\227=\336\272^=\267\027Q\275x\232\303\274Ic\350=\020\200\036\276}\312\335=\314\340q=;\251D\276nn\237\276y\257\253\275\314)z=\255SQ\276<)F=\037>k\274\027\304\374=\343<u<\325r\251\274\035P\200\276\203\267\031\276~\217\276\276M\240\237\274\313 \275=\235\030S>\272\242\250\275\030\221[\275)\006\006>\006\233:\275\256\n\276\275Y\025l\276\013\023\227=\323\342\217\276\272\350i>\273:\025<\304~\212<\205\372\277;\326\370\315<r\246\021>\034$p=q\240h>\201\251\022=Q\217\244\273\002:\263<\304\037%\275\226\226.\275F\030U\276\223\353@\276:\332W>e#\243\275c\301\371=KE\n\273S\022\233=\271\327\021\276\265\nS>A\031M\275\017\250\205=\024\300\205\276\207\227\345\276+5\235\273\234\372z\275L\264\317=y\227\263\273\366\014p=\351n*=&+Z\276\312\304\252=C+\005\277\225\034\003\276\245\247\032\276\371F\300\274\202;\216=D//\276\307\t >rF\226\275\037N\265<\t\344\370\275\347\300\320\275\300qm\275\250\313\n\276\264t\252=\352\345\271\275I\005O>\252\272G\276\377\335\333<\371\320\022\2768h\\\274\317\345\031\276\200\272\004\276\r\371j\275\220\3729>p\357\\>\206\375\263=\335\031\020>\326\344D\276\304)\005=\361\371\316=D\3310\2756\235.\276\311g\273\275\242]\240\275\253\234Z\275\023\017\002\276\244\274W:,\002\260\275\275\')\276h\330#\276G\217\013>N\316\221=\236\235\335\273V\234\227\275D\320\220\274\252\t)\275Lk&\276\207\372\274\275G\273\370\273\346\361\231<\277\006\255=\3330>;G\244d>]u\"\275^\244\013=\351\366\311\275\"\254,>\236\351\'\276\235U\370\275\334\231\316=-D\222\276\333\242\306\275\007Q\276=\347G\362=\213\317\241=/\244\222>\254\\\241<\\5\026\276mt\304=\005\363\300\275/\317\257=qW%=%\261\375\275#\023\000=\302\226\366<:D`\276\206o\027\276\337]\311\274\"J\265\275)\266X\276\305\342^\276\023\031S\274\343\232\247\275S\347\377=\222\316\222\276\334]\003>\237%\303=9\014\346\275l9\002=\225\n\230=\222\0167=\357\354)>s\351\260\274\253\035\212\274\261 #\275\336\251S=\367\316\355<\237\273\205=A\245F\276o\235a\274\202\262\343=\336\366\272\275\310\362\3238\320]4?\027\201\225\275\267\305\224\275\236\006\255\275\013\263\272>\024\313\224\275\355\027C\275\222\355\367>\'\334\224?\220u>\276\343\273\\\275\270\203\217\276k:\020>^\205W=\351oc\275\275\307\331\276\233 \022=V\323\263\274\342\202y?m\375p=\365\2740\277\2654J\276\362\306\323<j\316z\275t\336\345\275}HD>\315\305\227\275\273\252\010\276<\021w>AN\025?\226\377\222>)vP\276i\217;>\352\000\025\276\216\366\025\275X\'\251=*`\257=\342;\203<\227\366\305<\265=u\275K\341\204\275G:r>\343\356\301\275ZC?<Qn$?\210\263P=\355k\244\274\246\351\222>6G\024\276Y\270\'\277,\254\010\277\"\217\230\276\277\010\217\275x\244\343>fj\213>n4(\277\312G\032\275\354\334}>#\210\010>\231\204x>\016\346U>c\271\251\275tB\017>\216\326\355=\213N\215=&H\013>\2314\016\276s\355\370:J\231\225\276\243\257\307\275\327 \024\276\203\233\332\274\321\3501=$\251L>\226\2662>\327\216\035\274\214B\n>TR\330\275\2479\304\275FY\016\276\354\223p\276\222Dw\274\336\227\003>\302\252\356\275\316|F>\360&\231\272\276\372)\276\346\010\030\276\261\232\177\275\3057\244<\230\342\237>\024\273\025\276f:\346=\202\r\215\273\2602m>\255\020\361=\226\335\252=\251\232 =\247\246,\276\351\310a>%\376M\275\2110\217\275\245\320%=K@>>}[\353=\300\324>\276\301l\267\275h\220\232\275\0011S=^V\342=\2546\242\275\267\342v=ai\201\276sp\244=\357\271\003>3\341\006\275\254\317\240\275f\337i\275\301 f\274\013m\030\276z\306.=o|\353\274\305\306\247\273Q\323\202=0\352X\275\301\003\202=\211\207\200\276\223\200\231\274\341\340J\275\200\323\315\275\302\266g>\322oW\2762#\347\275lV1\276\030v\265=z\260Z\276~m\277\276\264[|=\034\204\242\276\353<\031>\013Lm\276rJ\253\275^\343\204>K\210\321= \026\225\275\356\217\270\275\227\3576=\246;c<\257B\214<\2671\231\275Z:7\276\271\315P>\201\267%=F\372\215\273&V5>H\276\206\276\236\355D>8Y\023>d\201\266\275\353*\212<-. \277\263K\177\276\322\265\252\275\235x\223=v\207\334=M\256\312\275\344m\000>\002\376\"\276_R\036>#o\035\276\247\361(<\026j\330\276^\313\206>\351\261\214>EMi\276\361\232]\275k}a<\351\014}=j\372\274\274\304\323\035\276\321#\227>@\325\277<}\310L>\213\237H\276\030\354\255;??\246\274\227\256\307=#\235\r\276\224\230\266=C@\032>\003(f\274\362\345\225=i5\n>\t->\276\304\0334>8j\215>IZ\317=DR\353\275\220\253W=\025\202\216\276_\327\232=\335\244\307=\006\201\036>\342^\010\275\357\337\204\275\375\317\261=\337c\211\274\210lP\275V\346\216=n`\026\275Vx+\275\234w\273\275\320cX\276\022`\226=\'\362f<\363\213\305\275\326l\033>W\244\377\275\373\362|>\302\013Q\276\001(\202=\353d\311\273v\"\360\275V\"\207\275I\214c\2763w\212=u\\\372\275j\244\013\276\374\240W\275L\276y\276m\232i=\332\rj=e\344o=yC\020>_\324\200=a\212\201\276\270 \274\274i\030\033\276\360s\204\275,,\013>\347\365\031\275x/`\276\272\004c\276k\330\265\275=\364\207\275\226p\245\275\264\243\250\274\346\034\030<h0S=\264\227\213<\032Y~=g\"0=\273n\006=\237\3331\276\322\021\272\274\3354-\276\307\311\376\275\344M\217\276\335\017{;\2122+\276\300\243\265=\325\247&>\342j\023\276(\371\236\276\005\351A\276\036\343%\276R\r\\\276\247\244\210\275K\231\033\276~\375\312=\024R7>\367\354\377<\207\333\002>\277v\200\276s\234\022\276\2379W\276c\272\326=\\K\216=\213\315?>\"r\036>\301\302\301=\365\001+\275!dR\276\311gt=\002\312.=\177\317\323=\220@\023=\024\253\031\276o\314\345<k:3= \205M\275\357\003W\274!\204-<[\321\002>t\006\345\274zt\215=}\317\354\275\333\271U>1\231\021\276\351D\202=\2165\267\275\243\315\205\275\n@{>j\337\226\274qi\331\275_\004\013\275\326w\032\275\232\000\r\276\267y\n>Y\252S\273\033\232`>\261\211\210=\362\362P\276\203\375\263\274\266(\306<aN\007\276\342C\225\274\253\346\036=T\321\n=\270\'`=b\346\222>\002Oh>c\201n\276y\375\261=\270\253C?k\262F\274t\356\233\275o;\205\276\370`p>\241)\220=\3747p\275\327\232\224>\321\022\222\276\347\270\"<+\031\013>\302\032\333\2758|\262\275\217\317\240\276*\300j<t\343\034\2764\377\265\276\202/\203\275\212\010\313<k\311T\275\242_6\275\311\344V>\246\234\002>A\347\034\2760\261\244>\260B\207\2748\242\256\276\261R\021>v\t\203\277\037\2775\276\232\307i>\340\301L\276\274\347\225\275\3051s\275\234\266\355\275\262cT=\202\301\211\275jp\230\275H\241\336=\3066\357\276\027\377D=\353\200\222=\330,\032\276(\236h\276\r8Q=\330p\242=\273\323#={\305\224>\014\354\373\276p\341>\276R\346)\273|\332\225\276|\372B>x\210\224=\355E\t\276{\362\025>l3\300=t\233\234\275\371\032\361\272\304\3031\276\230$\213\2764\n\013\276\245\272\n>O\341\265<\245~\224>\\\177\000=\201\346\373\2742\273=>\377g\204\275\221\030l\274+\023\001\276\0109\r\276\333\324\200\276O\224\322;\0331\016\276l\340y\276\317\371T>q\013X=\226]$=\260\006\002\275s`\356\275\247\027\365\275\245\033\211\275\026\254!>8\355\000>2\235 \276\366r\017>\375\265)\276\267\235l\274\232\215\261\274\304\000\006>\312\316\334\275=\210P\276\373\256K=\303\032\274\274C\226\000\276\205+\251\275f\331\373=~\220\216\273fT5\276&\005`\276\3152\322\275N\217\226=\305\032\272\274\374\334\217\275.\006\327\2727\347A\2760\240\215\275P\274==\251\207U\276\ts\033>\345\355\336=\025\250(\276PC\231\275i\027P\276\300n\030>\010F\016\276\233D\200=U\032H\2769P<\275\3646\227\275;\312(>H\247\225\273\r\200\355<\356A\264<F\353E>9\306D>\rz\302=\037\300\221\276E\213^\275\335\2642<\337A\262>\311&\024\276\363\365^=\355\336\014>\227d\n>\217\357\332\275\000\222\236=I\216X>\037~\241\275`r\203\276\217\003b>\350\341\037<\376x\255<5\204\003>Q\222V\275\311\276\032\276\260fJ\276\212\2060>LW\025>\366\320\253<\313\324a=|\240\n\276\263}A<\244\255\302>U\201D=\224\245\003=\371-V\275\2108\312\276\302\210\004>\202\241\031=\302S\202=\350\230C=\217\360\335<bpg=\350G\026>?\213R\275\2505\235<y!\006>\226\020;>x\312\302\275\302\265}\276\357s$>b\242\233\276U\007\007\275p\300\023\2777Z\226>\235\346c=\306D\323\274:+/>\000\026\373\273\265-o\275\342\003u\276JIh\275\354\307d=Q\323\035\276N[~>\002\276J>\003\n\351>\22422=\367\344\315=\311\307b<1\022*\276q9\037>k\251\207\274\262\252g\275\205F\202\275\2333!<\320\347\326\2754\014\335\275D\242X>\211\254\014=\326\006\034>\373\036B\276\013\003\201\275\265\031\347\275\006\006\003\275\323\217:\2763~\335<O\231\277=\205\313\260=5\245\036>\350\347c\273\336\216[>\2577c<\354\204?\276\353tr=\370\3663\2766\341\023>\033\304\020</\263\207\275\213^+\275\365Y\377=\376\214Y\2755\274\353=\010:D>\027e\235:M\205\250\272\303\330*\2760h\265\274\202<\267\275\272iv\276\372\221\241=\377\324\231<\222\277\363=\036\275\035>\\\331\213=$\212e=\331\272==\000\333\241\275\265{U\276\276l\351\275\271\335P\276\220\343\212>\242\003r\276L\026@>\373c\205\276\030\231\017<\252\366&\274C]E<\326\243~>|\374F>{\375\305\275P#\352\275}\207G\276\023\317f>}1\214=\206\016:=m\225\365=\006\336;\276\013\307\000\276/\0021>zW\311=*;;=\000\"\200<\t\277\333=\325\242P\276H|\312\273H\325\t\274\037uC\275\2456\003>\274\037\r>\013\255\300\275t_\217\274\323\210\002\276%\373\225\276\n\230\005\276a\351E\276sf\025=\376\372M\2765W\300\275\203\005\"=\ni\372\274\244Vu>Mz\025\276_\374\'>@\242\234\276a\200\201<\364\003k=\002j\354\275\211\375\312=[g\207=\335!\213=\014\021\205<_I\213\276/8\351\275K\233\252\275\327\337\231\275I\367\264=\3763:>{\273\341\275u$\025\274\177\036\267\275\212\265\320\275@\245\274\275\206C7=\025\355\271\275&\n\305\275\004\035{\274\225\024\032\274\3148\242\275\372X~\276\372\324\333<\341\243\023>\262<\240=\027\217 \275\267\334\323>G\353\024>\217\035N>:`\377;\002\030~\275#\332\016\276;\343\224=\213p\254>\027p\272<\206\344\256;\022\247\027\276\035\260\207\276\256W\306\274\242\201*\276\"{\236>Dq\214=`\273\023\277\n\006V>\343+?\275\215J)\275\371\334\201>)*\222\275\037\013:\276(0y\274\236_#\274\204\344`\277\013\251\326\274\236~\302>\001\324\254\275\r\3039>\r\333\263>\303\324\207>w8X?\270\3349>\334\304\302\276}\214\217>\030)e>\251\243\020>w\203V><U\277\276\365\035\311=\217\377*\275\3331B\275_\232-?C\237\305>\220D\337=\327\006\333=W\356:>\354\355\245=\273:\355\275\304\'<>\234S\251\276\025\200o>74\256\275\2127\203=|\'\251\276K\'t;\3347A\276\002\204\014\276\345\267\305=\021\2422\276\262W\002\273\274\016\306>\227MT\277\271m\363\275\016\327;>\215\220\212\275:\350\271=\323\224$\276\326\226\260\275t\210\223\275\2018H>\304\027\266=\333\345\374=_\273\002\274\3421&\275\341\2307\2762E\n;\030\227\230<\337\036J\276\366 \374=F\345z=\340\315o\276Q\333\000\276\334o\005\273\336X\276=\004\315\276\275\207\2049\276\331\337\215<\324&Q\275\203\210\247\275\320\204\373\275\034\2736\276~\260\272\275\204\202\202=\010\240\345\275\243\236\034\275S\362\353\274\212\315W\275\213\262\025\276\253B\t=i\200t\276\2546\r\276R\021\006\275?K\304\273\354\3316>K#r\275\201p\263\274\334\253L\275\340M\324=\2700\227\275\337\211\032\276\306\272k\275\231\347D\274V\200!\276\220Ro\274\023\207H>\322L]\276\223n\203\275Li\330\275\271\325&\276\264\340\200=\251h\343<u\004\263=\351A`<#\350;\276\235\303\351\275zJ\214\275&O\026\276\362\007\211\275\375\334a=\300\231\355\275\r\027\203\276v\222\026\275\330\350V\276\240\372\277=\262\037K\2764\310\203\275\002{D>\277\311H>\003\020c\276\377\027_>\360X\270=T\231\005>\211\321\273<\250G\000\276\372B\247\276S\023\025\275$\236Z\276`\332 \276\336\336\315\275\203\354\030>\325\240x=\037\025t>+\257\241=r\210\245=X\016\333=\016F\337\273\032s\262==\226\t\275{\255k\2755\206\242\276d\303%> \n`>h5\313=d\r\353\275\320*\361=\346\032\212\275\325\211\217\275\024\235\037>\313\026D\275\375Ir\275(\036!>\024\342C\276Wc\244<\0044%=\346\354\302\275\256\'\302\275B\217\200\275\030?\316\274\324\264\031>[\350\342=\246\323#<1\352\003\276n\316\271=\377:\213<m\315\026\275\026O\037\276\303s%>Z\267&\276\025\273S>\341\267\225>\357\325W\275\232d\016>E9\230=H\332\212\276 \310\210\276\317\260(\276i\221\021\276\355\260\323\274-w\224=>+d=\246o\013\276\025m=\276\210\036\256;j\"\022\276r!6={\367Z>\217\3407>\005\\\214\275\270H\233\276\272\276\237=S\326\202=\327\020\311=\206\232#\276\3256N\275K\276\006\275Xt\251>\352\255\210=\303\312\301\275Pm}\276Y\t\376=<\303\271=\220\302\244\276\'\031y\2776RR\276\243\025\205=Z\263\230\274.\216\253=\270\351p\275\036\251$<)qM>\236u\005>H`D\276D~\262\275D\256\005\277\t;\340<S+\027>Yn*>\346\256\001\275H\033\374\275*_\354=\361\205\345=\347r\300\275Z+\312=;\321;\274\026\252E=D\005;>\261\177c>\216\364\342\275\236\354\205\276\217a\247\275\250$\034>\275\264n<\242\354\024\275\005z\301>3\335\\>q\363\266\276\356JS>o\267M>\321{\215>\263H`\276B\031\232>Z<\214>\207\251\324>\357\247)\2760\200\247\275\263\334\233=\276g\333\276z\3773> o\273\276\350\031\023\277\356\215\033?$\272\234\276<\243\026\277\022\005C>\277\373\033\276\207\023\201\276\rU\344\275N\220\003=\364O\366\276\002\327V?\353\207\037>\311\200\'=@\233\177<$\242c>\340\014\002?\357\310\276<R\251\022>6N\202\274;\233*?\254\2679>51\307<\373=\211\275{`X\276eo\223\276\355\222\207\276\221\224\023\274\301M\236=6\211\344\275d\034w=\336\241r>\336\010\373=\034^b\2757b\007=\036\037\214>\256.\341>A\230\224?B-a\277\037[C\276#\331\006\277\274H\244\274H\254~\275\304R\345\276\231\375\\>\360\3077=\217~\025>\031QG>\257\\\271>~\267\246>\220\225\033>\n_M<\225=\201=\355\030|>\235\035U>\317S\275\274y\nU=\266O,\276\027\240l=\233\006\216\275\306\2070=|?\214<*\227\261<m6\360:P\010p\276\214\227\347\275\0271\320=ESW\275\014}\036\276\314\363\314=\024\0342\2759\200)<\364~+>\2548\376:\2133?>\377}\360=\\\356\026=\376\233\251\2745\364\261=\235\030\203>\255s=>j\222V>3\367\005\276\247\253\302\275\031\260*\276U\374\016\276 \247\277<\255\017\2709\016\275\202\276\014\233Q=\255\032\025>,A\321\273*\002\277\275\210\330\237;+\371\233\274\'6/\275AW\010>\n\241\213>\001\266\355\274&f\216>\216yR\276\254^\352=R\020\211=\027\227\036>\361n\213\274Y\224\256=S\350\212<\373\227\200>:n\224\274\325?a>c\373\261=8\303&\276\323\300x>Y\336\257=8\223\030>J\0305\276\255m\203\275\266\320f=s\260\017?fa\362\275\001\016\253;\360\t\262\276\024\032)\275\307\377\\\275\327C6>\227<\364\275\021\327\330=LN\026\2749\353\020=\003\244\013>l\262\224\276\004d\342\274\333\275J=\353\261=\276\000\351\243=\006\221Y=L>\266\275\305O\013;\275] >:\253\204>H\264\302=\247}6\276@N\353=\370\360\352\275\272\343\343=\036\216:>/yQ=4\233\262>\177\210%\276\267\240 >\217;#=\233\'\027\275\213\252\246\274\211+\025\276\026\337\243\275\025\022x\276\335\"=\276y\371@\276\261:\301=\327\263\263\276l\201\001\276\007\323h<\307,z\275\033\317T=\261I\236>\313B\232>\312\321\220\276\217\240\312=m!\201=&\236\235<\252y\262\275\344?\023=\343\212\243=6\206\333=f>\010>\264\316N\275\236\353\370;\346q\371\276S\321\202>\021\266\207>t\265\235>f\2617>\335&e>{i\023>\335\226(>;\310\254<\000\315Q=\016\251h>\273k\034\273\177#%>\245\330i>\224t\001>\3743\305<\375\206]\276\207-4>\177\350\214>F-H>\342\327\346=H\366&\274v\221\213\276\220\235R\276\000\276\221\275\206;[\276\204\277\260\275-\\_>7\231s\276G\300!\276,\205\256;\301i\357=\322\002\244=\226|\017>\0311=>\214`\244=\335\350>=\214\364i\276\320Ek\276\325L\266=b\242\232;\371f[\276+\254$\275\037\2467\276\020\221\203\276\2433\340\275e\2173\275\317\342F<\031\034\205\276\2418\262\275z\017\024\276\355\266\252=\021\264\024\276\366\\\022=Q\227\320\275h\376\230\274\013e\257\276\224\006W>\246\202\351\274^\023\027\2754f\274=\336F\240>\263\244P\274U\277=\276\010\202\202=\364\360\325\275\366Q\007\275\035S\374\275)\311b\276\267\222*9\311\305\351\2739\316\207=b\033\274=\002\245\355\275\237\t\206\276VB\206=\217gD\275\271:\276\275\315}u\275\233\321\357\272\241\300F\276\\n\203<\221\346\010\276\351\037\003\275\213\230e\275(\226\315\275\255C\327\275\313.\025=s\0007\276@\340Y=d.\355\275\356z\315<\023\2035>\204O\221\276P\230\271\272\003\003J>\001\240d\275\213\310Q=\272\315>>X\212\206>\005\tV>\220\034\225\275\003\177-\276\325\253\225\273f\262O=\242\273`\2757\201\374=(\211;\275-e\037\276}\351/\275\332\357\362\272\017b\224\273\373j\210>\341@Q\275\230\210\030\275\344m\253=/\264z\275\334/\r\275\rsY\276\263o\271\275\247OS>\251\027\221<\264\240\374= \214\277\274\024\010\273=v\014k\276\211\307\271\274\247\307\211=\374\000\324\275\200a\267>\033\230\332\275\214C\315>\013\0003>(\335\005\277*\026\006\275j\340\363=8\241\344\276S\245\302>\014\264\263\275\357\223+\275\t\245\273\2765R\210\275/\347\375\275n\250\255>I\223(=6t\275>\271\320\320\274\330=\t\276\372\371\\=C\024\t\277\361Ri>\323\206i\275;\261\325\275\264\"\314=ur\254\275\007\021Y\275T\323\r>\256j\204\275\305\360\227>\313@\033?X\3721>\n\321\002\276\'\341\367\275>7#\276E\213T\275\311\304\000=\320\'\236=\272W\034>\005=e=\332\250\264\274\374]\316\276V\372&<\020-g\276\007\233\003>\0018\177>zk\323=ns=>\205\016L<\267\344z\276\032\026\034\276z\312:>\345\255\346>u\367\234>\247\307(\276\034\243\227=\022\367\222\274\030\311\336=)\246\313:^D\364\275\332\366\016\276\244\207q=C\026\321>O\326\344\274\177g\353\275\312\210;=I\325~>O\274Z\275\326\031\"=\205\022\240\275V\256\220=tC\276>\26410=\007\016\036=\374\221\001>\216\372\361\275\217\313\362\273\017\247\373=O\017\206=\223\033r\2756\201G\275$\217/>r\030\342\275\214\205H>(\006/\276\277\031\200>\217\353\204>4\356\354=\000\334\t\276:!\255\276W\003\344\275\226\262\270\275H[2\275\211\202(>\304M\310>\364\235\245\276;\003\215>\205\332z=^.L\275)\256E\276\325\n \274\313\016k\276\003s\030>\n\262x=\240]\227\275y\347\033\276Qp|\275c\351\004>a\257/\276OoL\276\n\314\206>v(#=l\331\224=\232\2367\276\305\026\206\274\0361\350\275\213w\302=\340:\030\276~\215}\271\333r\230>$\215\235\275\357a\220\274!(\303\275\217@\006\275wOv\276f`\256\275/\031\036>\3663<\273z.u>\354J\021\275\007&I\276\224\360k>\260\006\322\274\26290=\316\205P\275)\327%=\0074\302=\365w\006>W\232\034>\213B\277=\237y\0039V\247\204\275\257\365\276\275\224\000\242=\377\273\021=\302y\036;\312\367&>\336A\324\275A;\\<\373\212X\276m\300\374<N?8\274\315OW=\307\301@=0\237-\274\366\301>\276\274\216\277\275$\326\"\2772\226\377\275\375\242\325;\255+\244\275.\001\341\275!\000\216>\265\031C\274\004\337\272\275\346h\206=\361\241t=K{2\276\260\275 \276\327T\034>W\327&=\342(H=>\267/<w9h\276\215\260\320\272]80>\213\005\311\275~\350\226\275\351\302^>x>\214>\004\013\317\276Q)\322=\376\247N\276\254\266 \276\277\2645<\335z\260=\227E^=t,\236=\270K\010\276\036\021\270\274!]\247\276\227\243\312\275\036\013\r?\203E\240\275\027\303g\275\226\350\014:R:\211\275\351\240\306\275\t\244\341\273\037\377U\276\335\226Q>l\3204<\006\350\251\276\363\272*\274;\016.\274yX}\2763\333q\276\350\035\001\276\302~??\351\352Y\276\224\320.\275\230__\275\003\215\242\276\262\025\227\275\240\253\256=\252\315\032=9\300[>\322\277\221<\271\357\350\275\214\032\276\276hO9\276\022\004R>\311Z\370=%6^=\242\355\255\276\316\356.\276\316\344 >\335\253_\274\237\342X\276\'\264\335\274\210\230I>\034\275v=<V->\306\311\003>\364\246\007\276\355\000\000\276{>O\276\016\001\267=\273\001\247\275I\312\345=\220w;\276\240\377\235\276\215\201\007\276\365\016+<U\222G\276\324\256\336<b\216\004\276\213`i=[\027\330\275\332dK>\311[0\276\305\tS>\216\305\033\273D<6=\363?\347\275`\314\036\276\216\224&>\217j\326>\260\241\251>\0321$?\270\307\237<\032#J\276\344\360x\275d6K\275w6\311>(\003\262>G\340\026?p/\210>c\337.?A\t\344;\006\215\226\276j_\023<\354\022\217>0\264\017=\210\276\022?\274\357O\275\310\023E\276\260\301P\276\032\213\311<\230\220\370\276{\266\374\275 \t\236>\233\376\016>:\266\036>\364\002p\276\236\3105<Ce0\275#U\350>\267\300\'>\262\3438>e\375)\275\204c.\276k\022\200>\266\350\202\276\030\243\315>\333d\254\275\323\300\327\277]\3561?\251u\325\274\266?\233<\246\317]=\317\364\247\276\244.\t\277L\216\204\276\304\263\037\276\335gH\2778\301\231\276\"\313\363\275\221.\323\276\267\026\222\276\352\177x\275\306\367\240\276Rm\r>b\252\341\275\014\327\253\275\244f\204\275u\256\324>\0255\211\276\312K\327<\334 \233\276\343aV\274\333\0074>\303\034I>\343\023\245\275a\020\361>}\013\274\274\3458y\276\256`\217\276\265\016\277\275\000\010\335\275\220\330q=\276\033%\276\t\230F\276\022zf=\202\310f>\360\r\017\276*\017\004\277\243\254S\275\353\206\200>\222\025\261\275\257OL>{\036\351\275\303Ni\276\224\244\203\276/\211|=\275A\014\276n\371\266>~G\273\275a\273\003\276\003\311d>\t\271\334\275\310\235\366=d\327\212\276\305\2616\276\031\200I\2761?b<g\226\343\275\277s\252=\327\302Y\276\013\316\240\276\027J\201=\'\232.?\017f\006>\263\265\027\276\021f\257=\207P0\275\342\235\025\276\267ok\276>4A>m|\217\275\020\341\004>O\374~>-A\262=\344}\311\276\305\215\234>\375\320<\276{\342p=\357H\035\276J\304&\275aV\373\275d,\253>\311\rm>\311\342\377\275\213\234f\276\037\022\307\276\200Zq>y\3419>\203j\267>Zl\004\276|\022\"\276\024\365\215;\246\033\334=\023\300\200>\354\211\314\276D\225\300>\343\301c\276A\221B?T\344\212>\n\307\010=\324\010\032?\374\000\324>0\306a>\307\032\017?\227\355\237= \213\200>3\317\260<d?\252=G\205\353\275.P \276\260\252\260\276\2642#>\r\235\000\276\375oA>RCI\274\240\357J?eX\351=\326\370\014>}5\222\275V\365\n=Eo&\276\240\256\301\274$\355:\276\206l\352>x\033\354\275\337\203\377\274\354\034\343>Q\017\236\274Y\306\007>c\277\030?\325\201h=\345\rR>\240q\206=\224\225x=\021\275\n=\307a&\277h\213\000\277\276t\"\276\372\003\r\274Y.\345>2pu\276@\022Y\274\260\356\244>\335~\220>\373\310\345=\205\363u>\372P\004>b\313\262>\031\016\034?\337B\211\276\204\024k\276\351W\273\274`\344\237\276\376\312\331;\022\254\213\276r\252\201\275Js`\2762\025\253\276<1.\276n\317\315\276\260\236\233\276\212\371~\276\326\272\036\276\000\022;\274_\232\263=\305\375\025\276)\016\300;\000\t\211\266Rm\202\274\322\232\236\275\240\027\010>\n\360S>\260\276\211>\263\266\243=\301\223\200>\377\305[\276J\016L=\304t\226\276\344\302\321\273\341\220:>\343L\"\276\350r\233<\032\322\304\276\204\210\310\275\352\016m\276q\243\216\276\305[\305\275\325\023)\2767.\211>\357\332\304\275R`-=*z\207= \304\033\276\376\244\255\275\337\313\310<]\024\236=f\356\344=\346q\031<w2~\276!\014\223\276r\304\307\276\002U\352>\335b\367=\366\342\276>\337\264F>\236wI\276U\224\003>\3721\025<\"\327\206\276\276\221J>\254H}\275\201\0338>\271\303\211>%2\367\275\2674\324\275\342;\206\275\227\311.\275r\273d=N\350?\276\'\245\237\276\214\306\335\274\014\367j\276G\326\215=\212 \256=\340u\200\276j\301\276=Cf!=O\315\017\276\330\3578=\327\022Q\276A\321\013\275\302c6>\374\307\356\274\010\206\302=\\m3>L\2644\276o\370\217\275\036\367V\276\n\001N\276\352\232\r>\026\260\322=U\301\032>0n\226=\214\320\r\275\326\307\"=\355\321\263\276\344H,>A\342[=\342\311c\275\276Ck\276\217a:=\376v\326=$\035L\275\337\225\244\275\315\273~\275\243\244V\276\224\3462=<\350=\276\334\2749\276\003KY\276\237*\035=eC\213\276\030V\377<$\350o\275\274\245\277\275Y\007\260=7x\304\274Cz\354\275j\256\031\276#VB=\013\231\037\276\306j\204\275\251\032\215\2754\257\031\276Et3\276\230Hx=\001R\017>k\350J>\313\244\035<\2451\230<O\3209\276W\367\204<\037/;\275~[\202\276\276\242\211\275\005+\007>\237\212\357\275\357\000\035>\212\254X\2760\021\232<;\224\214\276\013f\206\276O\177\256=\277\361\314=\221\033\004\275o\203\206\276\033\361\207\276\206P\347;B+\333=\027xe=U\262G>\330\213\202\276\037\214y=\302\353+\276\326\230G< `d\276t\233\270\275.\377\216\276\205\235N>Y\203\271=\255I\330=r\323+>\352\026/\275\332\017\306=r\033Q\276\254*\301=MI\230\274\322\r\265=\215hZ\276\216\001\203=W{\372=$c\371\275\234=\021\276\3627\275\274\251\037\334=g\016\214=\211\264Q>\324\330O\275\010\321\261>\252\377\237\276\002\2277=\234\303\023<\215\204\355\273\031vg=\363\205R\276e\363\275<P\241\307\275\276\373\277\275y\235@\276\256\030\230=x\037)\276.(\371=8~f\275\326\2243\276\306\342\300=\244\236r>\310\306\304;z4\020>\350\334\257;*\233\270\275\316\266\341<\305\263\372>a\327\206>\350\252i>\255\301`\275 