node {
  name: "FirstLayer_input"
  op: "Placeholder"
  attr {
    key: "dtype"
    value {
      type: DT_FLOAT
    }
  }
  attr {
    key: "shape"
    value {
      shape {
        dim {
          size: -1
        }
        dim {
          size: 9
        }
      }
    }
  }
}
node {
  name: "sequential/FirstLayer/MatMul/ReadVariableOp/resource"
  op: "Const"
  attr {
    key: "dtype"
    value {
      type: DT_FLOAT
    }
  }
  attr {
    key: "value"
    value {
      tensor {
        dtype: DT_FLOAT
        tensor_shape {
          dim {
            size: 9
          }
          dim {
            size: 128
          }
        }
        tensor_content: "\200KA=u\311Q=\304\014\221>\341\032\274>\220\021\243= \202I\276r\350\n=\035l\022?d\234Q\274\001\036\364\276\303y:>\232c\270\275\320\221F>\216g\253>\022@B\275q\004\002?r\271:?\013\200\305>;\271\035\277\320\321d>Ao\014?Ny\003?N\031\327>\351Ck\276{\"\270>\340\223\360\276\357\325\027?7\345\013\277\227m\036\276\002\354L\276T\n\365>f\342=\277\301\030-?\3508Q\276\353R;>\372\'!=\007\361V\276\317Y\312>d\006\222\275\n\237\032\277\360eh\276\020\203\364\2766\017\227\276e\341\240?\001p\354\275\035\377\020?\241_\023?H\304E\277\001\334\004=\376\330{\277a\262n=``N\275x\231\016\277;7\035?\006xh\275\220\345\003\276c\010\237>\007\3405\276,\276\255\276\221\345\361\275\274\245\371\276-\337\016?R3;\277\247K\315\276\300\271\314>-m\007\275\251\243\230>\225}\t?%\205\251=\2101\245\275\234J\360=P\027\234\276z\267\242>\026\360\212>w\n\032\277\201\324\230>!\252=>\0307\211\276\335\331\030?SO2\276\310\022\351\275A5+\276y\337\000?x\247\"\277\235(\t??4\317>xud\276\306\356O?\020\230\016?\306\016\372>\351\341L\276\326\301X>,\212\237>\223~V\276;p\r\277\224\325\277>\2067\324=\013\270\245\2769Y\322\276EW\t>\246\272\317\276\343\364\226>\233\201\002\276(\006T\276V\371\262\274\321\014\322>\275:\214>\311\375$\277\265\361~\276f@H?n\370\020?\265\243\242>.\217\352\276\217\224\264=\253d\223>v\025\357\275\231\206\002?9\224\275>\261\256m=o\002\203>&\2634\277\341\331q\276h\314*\277&\017T?\314\220\277=\016|;\277\276I\225\276\274#\003\276LW\271\276\251\003\363=\325\320.\277]$<?\025\340\303\276\301\261\334\276\343\3125>\032<\205>%8\304\275K\026?\277\252\276\325\276\211\225\342\276m\340+\277\"\352V\275\206\340\014\277\245\341\214<\364\016\234>\354\314)\275y&:?\355@\004?\016\354\224\276Lh6\275\327n\343>\271\226Q\276\177\234O>\341\230\017?G({>\367(\247>\221\272\016\277\214\275?\275\317\373^>\346~\037?\3535+>\264t\377<\271\\V>W\n\001\277\264\260}=\310~\335>~\034\301\276\223\373k>\357<\302>\307\2705?Tb\250>\366T2>\010\317R\276\030\346\233\2767\203\033\277\003v\240\276\337\027\025>\034\364\342>\325\215x>\271\210\313\276\264v\242>\006Y\030\277%(\217\276,$\274>\370\3244\277\365\350E?\004\021D\277YA\342\275\325\0131\275`F\300>Q\352\006\277\347\316\346>\246Y\302\276\020,\240\276\250\247\277\276\204)+\276Y\000?=\217\237\235>\203\256\033\276&(U\276!\032\242> eQ\276\353\376\324=\240G\031\275uB\263>\000\033j\274\303\255\300>\001Vu\276.s\236>\016 \226>C\271\351>\253\2750\276]\"D\277m\3452\275hvI\276^\322\206\276w\221\025>o\222r\276\210\306\233\275r\337\\>\245\204\273\276\346\177\321>%\240\210\274\272\024_\275\372\320\225=T.{>3\330\231\275\245b@?.Z\201?K\374\n<\3208{>\003\033\362\276#u\026\277\236\201\310\276r\230\337>\334\345!\276\373q\352\276b\031$\277\025\227\331>=\257P\277\013S\304\276tYa\275r\321\303>.\t\343\276{\247\203>\301*\034?d\274\353=\n\301\304=\327I\222>\325\307\027\275k*\262\276\326^\027=\302\365\273\276\036\363\302>ZH\334>\021e\021?\t\036*\276\303\256\207\276\362\2733?:J,?\016\266\246\276\177h\220?\345\317&?\315\211 \277}\003\222\276\364\341.\276oE\240?\210\315c\276:\313\345\274\361\251T\277\262>\341>b\001M\274\234\375,=6\204\201\275?m\n?\267\312z<\252tK\276\276\353L\277\360\301\241\276\211\013\210\277\033H|>F^\275\275w\204\243>`$e\276O\303\210=\345\352\300; \256\323\276\372\005\305\2740\324\007?\203\323\274>\223:\206\276\260\304\017=\224:\031?Q\331\351>k\016\344\276)\361\302=\237\263|\276\016\n\337=\033\242\226>n)\316?n\363\206<h\373\234\275\313\023P\276\356\241\001?=\226\r\277Xj\035\277AX@>\301l\035?\353\202\023\277x\300\036\277\353\342\321;z\272\022\277\'\014\374\276 <\324\276;\212\304>t\2205\276\220(\004\274\313=w>\030\306\203>\'1\241?\354(\275>\303\336G\277e[.\276\320)!\277\356\366\177>ui\r?\217\026\214>\203\325\232?\357\036\335\276\317\250\271\276\016\342\255?7\263r>L\364]\275v +\277\353\300\\\277\311fo?Ix\257\275j\027\274\276\322E\227<JG~?\314\210#\276:\266\325\276/`\370>\301k\257>n\347\255?\207\330c\277\034\211\315\276\034\200\345=Uyd>S?M\277\265\205\202\276b1\253>o\351<\277\216\233\246\276\027\363\245\2765\323$?\255\267\032>\004/`>e\010\213>\244\353\216>\246\345\037\277\243\343n\276f+\002\277g\322\310\276\235\273k\276\3200p\277\303E):f\340\033?o\306T?\376\304\303\276\351\2601\276\244\213\025>\360s\215=\307\021g=\243\313a\2777\362\365\276\333#r\277\215\321N\277\360\224\226\274\022\356I\276\367\017\013\277[\341|\277\312\273X<xQv>\013\303\257>\303\0335?\276\024\323\276\225\376\227\275\020\010\014?~+\350\276\232W\300\276@5\332\276u\020$?\211\300\221>#\037:?U\275\232=\354\247%\276\316\014\251>\243%\'>\327\036\365=\330J\205\277\222$\355>\353\312v>\274\306\014?\336\312\n\277LPx?\307C\260\276:\271\365\276\366t[?\262iW>H\222^\2756\261/?8(\261=\n\027\243<<\3677\276J\207\027\277m\301\260?\315q\202\276\330\246f\275\274\366g>j\303\013\277g\020\000\277\316 \317>5\243\357>\371\355M>j\030\013=miT\277\217\003p\275\320\244\305>\205\2065?\003=\010\275\323\030\262>K\264\255\275e\303\211>\2626\233>\017 \357>\246.U\276{\266\204?\3624\\?8\342\307\276\233H\017?\374\"\260\276F\302t>}\205I\277\334\035a\2771k\023?\344,\314>rj\337\276\307\t\305>d\226\245>OH\026\277\004\322\r>%\010\332\275\0003\230\276\255\2563>\321\216\275?\301\367\200\276\347\217\266>\276\233\317>M\222\241\276\275y\213>)p\022\276\342\250\247\276\202\2363\277\254v\004\277\'\'\004\276\025.W\277\307\244\027\277\327\205:>#\tY\277*\230/>cS\203\276\371\000\227?\364y\342\275\375\204o>\221\030k\277\350\307\027>\025\351\221?\310\221\323\275r\375\276\276p\375\321=p\031\216\276\217\232_?F\372+\276\336\023k>\340\321\360\276\002\263(\277\311\205\335>X\335\326\276\007\224\364\275\034\377\230>\341\002/\277\245\022,=i\223\274>,\364\247\275l\343\006\277\021\307*\276\2025\020\277\221\242L?_\345V\2768\235\343>v\201\202\276\rZu>\2607K=r|{\275\325\250\367\274\241d_?\322\324,?\222<\202\276\274\266f>\272P/\276\351\025\n\277y)\032\277\204?\214\277\275+g\276\037\210\374\275g\365\007\300\220\000q\276\3516<>Z\347<\276\311\361\233==\207\226\276\2747\032\276\322\017\223?m\323\212?\257\372\262>\'\030\223\276]\310\205\277\355\001\016?B\037$?<g$\275v\210d=Ha\247=\277\353\034?\265\342\230<d&\270>\355\177\377=\024\274\336\276\022\031\030?s\274\226>\324\006\257\276\001\326\313\276W\216\232>\312\307|\277\222\315\340>\372\002\037>\361\274~\276\323(\255?\366P[?\"o\315\276v2\326\273\237,7\275\366\337\213>\365\323\241\276\215\035\262>\202\264\314<|\"\334>q\004E>\0245\003\275\231H>\277N\303\014\276HV\257>\210ln\276\367\341?\277\203Q[?\037\367?>\364Ne\276\230\325x\277\205]L>\237\316e\2764\226\315\276{\330\021?\344\237#\277\323\351\264>\024\261S>\237p\213\277\346\035\271\276\362\005\225>\322?Y\276\262>r\277\1775#\277)\3006\276\370q,\277M\250\310\275\017\244\202>\005\376\217\277\205\333s?\244+\031\277\224t\025\277XR\315\277\212\2202\277~\251d>\271X\252\275\313Z<\277\363\341\322=\356U\254\276{\236\244\276e4\207>\312\200!?*\211$\277\330\263\027?{\240@?\312\300\036\276\241\311\334\276A\206\327\277y?\265<\251\3561=\260\353\177\277\243\224U?\354\"\355\276\2202C\276,wo\277\027\215c>\005\353\320\277_\271\334=\216\211F?\273J\014?\340\330^\276\303\366\005?A\210\213>y\230\002?\344\226\215>\357\036w?oC\261\276$Ao>QV\332?\247/\213?\262\224\315=\270\004\344\276\343\204j>\004\031O\275&\034\234>-\325V\277\204\031\225\276\021\363\246?\250\014\227\276x\025\017\277\375\033+\277\354\203\303>]\312\222\276[\305\031\277\315/!\275\246\020\221>\177\213\220\277\277Ei<D~\200\277\250\322-\277\342\351R?\233\031\240=\273\004g\276\364\375\">\030D.?\337\n\270=\303\310\234\2761q)>\325(C\277\362_\335\276\360G\017\27703^?\r\357\204>\311\021\233\276\r\320\256\276\260\201:\275\033\001\006\276\245mC\277O\004\260>\233R\346>k:\300=D9\355>\214l[>\342\255\034?^>\213\276\037\014p\277a\021\246>a\225\025?\242P\216>\273\206]?\034w\303>\026\372\222\276JY\300\274\206b\357>i\005\226>\351d\322\276U\204\314>\227k\007?\265\276\341\276t\037W\277bZ\332\274\3273\334\275\337\341\022?\032\352\325=\376\230\357\276\262_\031?o\354\232=N;\323\276\262\354\271>\377\333\304>\341\242<?\260\006\002?\374\352\017\276\300\321\014\277?Sr>\335\262\327?Go\220\276\026\352\321\276\314V\346>W\275g?!\031\251\276q6\013\277l\000g>\321P\357\276\346\231,=\377\220q\277\204\020\231>\220(\r\276\207H~>)\377R?\306\202\340=d\007\027\277\312\220p?`!\236>VU\036\276\376\004\336>\0274{?\t\343,?(JL>\024\321\205\276\036,\366>\034C\014?\353\334\342\276B\375\021?bj\215?>\262\351\276\233\373i>6\270\036>l\305\314\2756\010-=LT>?\316\234\243=\333\354\300\276C\2543\275\253nF?\256Js\277\220\240\010?mW\006?G\233\367=\302{\273\275\265\252\305=\014\032:\276\225\036\224>eg_=\216]o\277U\024\035?O\260\226\276\034\372/>\t\342i\276\365\353\037?\364!\272>\315\030#\277\300\254Q\277\013\226E?3\216F?H\345T\276\256\2427>;+\353>cA\001\276\225\345n\276\307\305\213=\240\026\017\277\3253\215\276>\\\363\276\243\025\241\276\331\324s>\313D4>.\370%\277O\267\200\276(ub>\304\351G\276\203\277\236>\370\246\272\276\204#\344\276_I\327>\035\222\307>[5b>\r\274\014?OR\033?\235\3337?ox)\276\327\r4\277CV\023\276\361\332\321>5U\370>\273\020\251\275g\001g?P\377\222>)?\037?\016a_?\322`3>\010\010\223>G\221\n\276|=\003?\375\177?=\210(\202\276\275v\322\276}{K\275j\322h\276<\004>>,\223\306\275\235|\360\276\277\364\370\276?_\014\276\352\365\200\275TL\312\274\323\004?\275\261w\327>-\273\313\276\325bA?\004\334s\276\377\376f\276J\342q\276\030\266\254\276N\2055\277\024(T>\376\325\257\276\'\022\024\277\316\325\376\276\222\265:\277,?z\277\251\341u\275\354\347\314=\324\210B?\273&\014>\237\177\016\276\367\276*?@\311\007?\2354A?\223\327\341\274`\277w\2776V\250\276\246\016\365\276>\177\307\276(\007\302\276\353\025\024>\223\345\036\277Km\246\275\374\325\335\276\264n]>%\315\253\274\247\025i>\231nN?\355\217y\276c\007 \2778\3739>s\'\215\276?\375\261>m\354\275\275\3144\257\275\377\000\020?\205\326\027\276\210\203$\277\227D\020?wH\021\277\"Ix\277\030\345\252\276\313IG>4\002&?g\314\350\276o\177\261\276\236\020\240\274\225\2305\277\000\274\262>\202\306\314\276\232\014\314\275\360k,\276\276\320\267\276\013_ \2775!\347>\026\225e=Ed2>\202\025o\277\253\252\215\276\024(\317\276\262\036\021>b=#>\255\341\036>\003\247\001\277\351\004\201\276f\001\320\274t\323\210=\005\013\272>\267\031\225>j0\232>\234\035_>d<\327>j\304?>\327\276{?z\t\225>nP\010\277z&J?\200\006b\275\2743J\277\205r\230>cX\254\275\311V\357\275)\375\227>\334\302\217>P?&\277\256yg>\270\323C?@j\236\276\350\270\277\276\316\212\311>\032W/>\302\032\215>\232:\212>\312\005\370\276\003A\234=\271\255\240>\032C\376>D\230\003?\030\022\033\277a\r\326\276C<\034=-\351=\277\254\035\026?\223\306.\277\n\235\237\275i[\326>k`\271\276\0014t\276\335\236\340=\317\327\255\275\363\243\026\276\310\335\017>\222C\330>\375\036>=*\275\366\276k\250\352=B\257X\277\343\2356=C\251\r\277a-Q\277U\204\360\275g/\t>z\300\002=\342E\007\277\2632a?p&n?0 \336>M\241\336\274\331\357\035?\214\014\014>]\272\346\274\313B\t\277\362\2169\277\274~t\276\302L\004>\026\214\272\274\351\216\021>\336\227\324>\356}\313\276\312B\013?\311v\376\275N\t\265>[\020\t>\217\235D\275\315\017??\265\t\236=\252B\302\276\005\316=>}\002\r?\232\345\014\277\224\002\255\275\020\0131\277\241\220E>Q\200h\277\030\301\262>\274|\246>sV\017?\334d\234>Io\020\276f\326A=U0q?\362\301N\276vs\005>\275s\325\276]\254\026?@\334_?\326k\000\277\210e\342<\001W\240\276\020\"\257;\243\256v\276\370s\303\276\346\337\204=R\007\"?6\333c>1\273\242><s{\275\364e@=\340(\263;\354u9\277\207\237%\276\364\034<>c2\025?\374\000\234\276\344z\r\277\262\362\264\275\376\243\267\275\341Be\275n)\266\276+\205\242=\242|\234\276\255I\232\276\231\362J?La6?\221~\210=\200\037\201\277.O\006\275\277\304\037?!t\347\276v\244\340\276\023N\245;(<\r?BQ\225>e\351\322=B3\n?Zek\275\\\244\264>\2623Z\2764\013\004?\364L(\276(\277W\276\222m\202?\227gH>@g\351<\270\255#=Q\340\337\276\251\211t\277MU\223>j\375M\276f\321\315\276I\234\033>\327\316+?(#??y\361\212>\337\361\234\276\314\005E?\nT\303=c\247)?6s\032?\021\222\237\276\315\237\256\276n@\230\276-\016\220>\267\341\344:A\246\\?<`(\277\000\213\021\276\\\000\360>\031\304:\277\361,y?\245g1?\3202.\275D}0?\220\340\020?\256\356u?\325\277\273\275\033-\345\276\n5$?q%\003?\353\376\263>\331)\003\277=p\">\002b\314>Z\312L\277\237\363\225\276tT\230>\330\323\026\276\337\354r>s\260\352\275!\360\325\274Ge+>CS.?w\374\"?\224\372\013?\240\215\367=\222.H\275de\303>=\205\264\275F\220\006\277HRA\277hDA\274*\255\256\274\033\275\\\277L\216F?\020\306#?\263\321%\277\245%\224>I\026\t\277\003\307\201\276\326\027\256\276\246\227\006?U\004\340\2769\264\024>\361@!\276\025\360\327>ZnL\276\277\236,\277B?\353>M\307\346>\226\352\361>\207 \206\276\315]\022?\347\2704\277\266\345\326=\337E\273=\305~\331\2765\3004?:\373\005\276\204\204\"\277\317A\261<%Z\270>\317p;?\027\2310\277\264\261W\277\205\305\345>5\177 \276S\021C?\024\362\033\277\310\013\312\276\013k\006\276\201j^?b\240\n>w\350\365\276\222\251\035?\250H\265\274\020k\355\276\237\253~\277_v\272>\316~\031>\340/\256\276\3103]>n\345\253\276S\262j>\352\322\344\276\215}\232>)0\312\2768h\037?\305\314\206\2739\367\371\275?N:?"
      }
    }
  }
}
node {
  name: "sequential/FirstLayer/MatMul/ReadVariableOp"
  op: "Identity"
  input: "sequential/FirstLayer/MatMul/ReadVariableOp/resource"
  attr {
    key: "T"
    value {
      type: DT_FLOAT
    }
  }
}
node {
  name: "sequential/FirstLayer/MatMul"
  op: "MatMul"
  input: "FirstLayer_input"
  input: "sequential/FirstLayer/MatMul/ReadVariableOp"
  attr {
    key: "T"
    value {
      type: DT_FLOAT
    }
  }
  attr {
    key: "transpose_a"
    value {
      b: false
    }
  }
  attr {
    key: "transpose_b"
    value {
      b: false
    }
  }
}
node {
  name: "sequential/FirstLayer/BiasAdd/ReadVariableOp/resource"
  op: "Const"
  attr {
    key: "dtype"
    value {
      type: DT_FLOAT
    }
  }
  attr {
    key: "value"
    value {
      tensor {
        dtype: DT_FLOAT
        tensor_shape {
          dim {
            size: 128
          }
        }
        tensor_content: "Z\365\366\275\260N\270\275\252H^=8\036\006=\271\036y\275\322\2275\276K\271\233\275\247\002\204<\000\222r=\317o\205\275id\014>u\322\r\275\234\3634\276\313\0200\275\337\277\307\275\306\321\201=\350\003\350<\270\350\340=\000\000\000\000\000\000\000\000\215\267\235\275\374\321\232\274%\211S=\334\304\270=\2124]\274\003\206\324;\000\000\000\000\n\2102=R\2233>\006i*\275\223`J;\246F\000\276\034\336\202=d2\006\276\265\201]<\207\335e\275\031\027\n>Z+_\274^\305\032=2\215Q\276\345\3343>\272\355\225\274\366:\354\275S\216\373<\231m\022\273&\277\337:\356\367l<Z*\021\276\007\001\026=v`G\274\375\221\302=2\251\204\275?\236\336\275 \257\000=\314}w=3\0137=\r\301W\276\027s\315\274\0025\373<B\374\034\276\251\305\305\275\000\000\000\000s\321?=\006\205\345\274\242I\037\275\200\226\257<\333\235\212=\220\270\203=4\377\356\275\305\376H\276\023\032\027\276\206^r=>\207\005\276\304\217\353\275L\310e<W\247\017\275t_\215\275)X*\276\253\004\243=9B\337\275\324\262\222\274\3247X>}O\200\275\327\301#:\311\345c=V\276\013\275\251\030J\274{>-\275\276\301\357<()G\275X\320\n=\177\031\211\275\230\265\337<E\277\037\276\025\003\001\276\214\205\"\276\204\265\340\275\001t\217=\034\224\236\275^i\320=\225#q\275\313\032\003\276\344\217\376\275h\325\267\275\023\216\026\276\244\275\275\275\275\204\203\275yDC\276\276\0004\275eP\016\275\305}\231=_I&\276pWk<\212\203K\276j5^=\010\223\036\276H2\360;\224Q\211<\304\257\261\275%\252\326\275\373\031\267=\332\205Y<\020\207\261\274\\(\327=Zb\273<d\032\244\271\247u\017\276I\334\222;"
      }
    }
  }
}
node {
  name: "sequential/FirstLayer/BiasAdd/ReadVariableOp"
  op: "Identity"
  input: "sequential/FirstLayer/BiasAdd/ReadVariableOp/resource"
  attr {
    key: "T"
    value {
      type: DT_FLOAT
    }
  }
}
node {
  name: "sequential/FirstLayer/BiasAdd"
  op: "BiasAdd"
  input: "sequential/FirstLayer/MatMul"
  input: "sequential/FirstLayer/BiasAdd/ReadVariableOp"
  attr {
    key: "T"
    value {
      type: DT_FLOAT
    }
  }
  attr {
    key: "data_format"
    value {
      s: "NHWC"
    }
  }
}
node {
  name: "sequential/FirstLayer/Relu"
  op: "Relu"
  input: "sequential/FirstLayer/BiasAdd"
  attr {
    key: "T"
    value {
      type: DT_FLOAT
    }
  }
}
node {
  name: "sequential/dense/MatMul/ReadVariableOp/resource"
  op: "Const"
  attr {
    key: "dtype"
    value {
      type: DT_FLOAT
    }
  }
  attr {
    key: "value"
    value {
      tensor {
        dtype: DT_FLOAT
        tensor_shape {
          dim {
            size: 128
          }
          dim {
            size: 64
          }
        }
        tensor_content: "\323\302o\276\260\262\205>\222d\277=\235\376\037>>sB\275D\255\021\276\271Z\265\275fK\202\276\003j\211\276<i@=\372\354\363<Z%\033\276\026\0259>0N\240\2752\371?\276\214\t\265\275wj\370\273<\r1=\351\273\023\276\335=\243\274C\346\231=\002\241\350=v\240\"\276\341\251,\276\350\202\010\275\237o\361<2\373\216\275\022\334L>D\005:>\336\021?\275\373\020\253=ho->\223\376\017\276yh\214=N\310l\276\371~\\>\201\273\241=\004_1=R7#\276\215\204\244\274sW\326\275\370\346\322=\212\301\231;\377rP=d\257\335=\212\2505>b}\t\273_Q\332\274\n\211\370=9\346k;.-]=L\323K\276+\363\026<\225\006\033\275z\031\312\275\277O><<\016\275=U\350\337\274\244\003\355<\354\004\237\274\365\242\252\276Y|\344<\343\343:\275\016{\210\275>\242a=t9\303\273\223i\263>\364\316\242=>\214+=\225\215\267\275\203_!>ba\321\275\227\324\004\275\251\226\333\275\271\333\342=\034D\002>\2106\031\276\'7\304>\263\261\362\275\217Z\206\27629s>?O\010\276C\304\273\275c\355\212>i\313\345<\330\300\316=\355E\265\27431.\276\214\323}\276\255\255\"\276\232\0271\2743\303A\275\277\363\303=\234%\003\274\252\316\031\275\007\032C>M\267Y>Q\302\205\272q-\210\273\261\364\020>O\211a\276]3\221<Lv/\276)\311\345\275\342J\'\276\217\307\235=E:\205\275\274_\233\275K\322\272\2741\376\312=U\224/\275\266\025\361\274\235*\260=\020v\024>\330\340\237\275\233X\304=`\030\033>~\000\313=\025\2705>\247\234\216\274CN\251\276\344f\243>\325\221\035\275\233\246\022\276\341\363\033>\360\374\033\276\030\371L=\020\246\372\274{\352\033>+.N>\262c\242\276\241\253W>Bl\255\275\336v\035>h\020T\274\347\250\331=\215\325\221\276\007G\216>v\014\201>?\274g>\350\204U\274\371\352\232=\344\020a=\246\340T>}\3744>\250\370G=.\236\242=\004\345\371=\246\337#\276\325\225>>8\357\251\275\307t\316>\340L\221=\357\037Q\276+\360:\276\317\270`\276\262\345/\275\226{\324\275\333j\261=\2275Y\276\372\264\007>\214X\005=\313S4\2766F\006\276\317Wq\274\226\260\264\277\346\017\217\275\343\030\000>,\270\003>s=\227\276\271\334e\276\262\311\331\275\225\211t\276\357\211F\276\032dm\276\255\325\217\276\010\206\265\276\225Nx\276f\216\211\276\332\362K\276fc\214\276\265\314\207\275\326S0=94w=X\234\304=4U\035\275cq\325>i\363o=f\205\006\276\373\307\275=X\347\021>b\3055=\356\364\360\276J\371\033=&a\305=WU\315\276p\317\312>\300\255\202\275\370c,\274\325\363\340\276)FZ?\25397=\2311\032\276\221\n\002\277\224\323\r?L\231\300\275%z\021\277?\026/?\240sI\275\333L\363>F\272\221\276\206g-\277\000\017O\275\347l\347\275OM_\277\022\210\231\276M\356\\\276wh\306>\201f\355=D\271\001?\347\375\211>\2452\032>\213\227\332\276T[\004?\020\241-\275\366\241\255\277\207\267F\275\365[\032? \227\016\276\334\340\225\276-\363>?G\253\251\276\323AA=\004\317\260>\232L\214=qZ0=\r\374\211>p \317\276\021\373\363>\243\247\320\276\253T2?\334\327\215>\227\304?\276B\324\261\276\241\374\251>.\222\261\274\317\2026\276\254\323:?y8\247\276\325\241\374\276\362\035\361\2767\t\230\275}\367\017\277y\251\003\277G\327\024\276\245{\002\277\226\353\240\275vW\">\255\222\002=\035\270\232=\351<\234\276z\367\030\276\337*\236\275g\342\260\275\236\256\233\275\343.,\276G\234\235=rt\314=\314\202\321\275\224\274\364>\322\020\210\275\377\306\355\275y|\215=\271\306P\276R\237\037=\347\200\r>K\231^>)7\n\275?\271\014=\262\265\212\275Mi\022>\224\217\253\276\235\036\272=M\274\303\274\245\371\024?3\312W<\232\0169>\230\236\331=\233\312w>\314\351N=\rd\021\277\022i\216\275\331\312\342=rTl\274d\361\340=\370Q\224\276Cp\260\274\032\220\357=\027\307d>\332\'\260\275s\377\201>E\357->+\353\273\275\274{\014>\026\255:>\355\303\022<\226\034_\276\'\200:\276{[\034>\312\246\252\275h<\000>\265h\t>NP\231\276\316\331\215>+C\226\275\014|\372=\260\032s>.z\212=o\314e=\027\032l;]\261)=\023\307\204\276\205\351\002>\305(\026\276sdj=\352\2515\276\237\270\225=\305\336\220\276A\345\222\274\n\363\227\274!\326V>\"\312\216\274\322q{>\222\306\305\275\347.\342\275\276J\032>\'\031\313=\327\314k\274\334\273w<\023C\265\275\364Y\\\276\177i0\276\365\310/<\006\210\003>g\3142\276\263\372\216<U\274\214\275\341\362\272\275B)\340\275\345\212\020\276\306\373\227\276vP\004=\2046W=\224~_\276#\227\002>\357\027\\\272\236>\207=\327\013\'\276\234\347p=$\371\203\275\3255\024\276\305\346\032\275\247c\344=\301\376\355\274\277V&>B\311\225\275pLT<{\356n\276\226\310\323=\2405\265<\351\356J9-\3577\275\033\366s>\360\376\204<\220\036\214\276\020\251&\275\351\350f=\365 #\2755\302C\274;\260\306=\364tE\274\226\246s\2740\316\253=\362\252W\275\231U\025\276\332\"{\275\277N\204\276\207r\033\276\205\265}=SR\264\275YFo=T\247\223\275\244\274\023\276K\344\300\275\017\244\262\275eA\017\276\331j\265>\034qR>3Bi\276@G\200>\262\205\001\276\013\027\201>\353o\360\274\222\232\266\275\231R]>\326!\211\2760\023\003\277\311.@\276\340\3747=10\322>:q*\276v\245/=f\030\377=qFG\276\272\324\354=\240:A>\247(L\275\242V\264<\003K\273=\006\032\263>\360\223\364\276\026\001\\\275\311\323:>\2762g>\363\341C>&\343\210>\243?\036>\364;b\275\014\363\216\275\177\312\261\274\257\262\026>s\231\204\276\364y\264>\037\307\005>\337?G=\360\326\254\275\346\216\007><_\026;\310\374\312\276J\306y\276\272\264g\276\317\026\302<\037Q\265\275~\031\370\274\377\314\207\276\t\230\316\275\007\256[\2765Q\210\2760\354\013\276Qj^=\371u\373=\010\177\206=\267=\026=K\000E>\030D\266=\271\253x:o \241\276\345$\240=\305\t\341\275\223f\316<\017\3718>\017\224A\275*\344\014\276\200\335\203\276\211$\355\275\202G\203>\013\261\007>x#\257=s\327v<\r\270N\276(\271\214>\360\331u\276,\\.>a2\253>p\231$\276\337:\026>\275\315i=\2527j\276\033\"a\275p&\220\2779\372\201=\025\'<>\3425\026\276\261\2618>`I$\276\241V\306=\240\320u>Z\275\023>\202o\366=\270W\370\275}\210\215>\034w\001>\350\007W=|\316Q>\206\320\247\275\026\323\215>\270\002\230\274d|\360=\030\010j\275\361H\312\274\354\357\010\276\000\307\255=.A\221=?.\201;{\370\002\277\022\025\\>\321k\311=>E@>E\2031?Z,?=\205\033\211=\325<\253>Ua\203>\234\306\001\277pt\376>\"Rl\276\010\021%\276\314U\212\274OF\006>\353\332\225=(%\333=\0057\273=\375\311\220\276\215j\315=3K\024\276\317O\345\2753\004\240\275\271G\017>\366\202\250\274\023K\305<\203\303-\275\267\036\035\277\336\324&\275g\332\201?\255\201Z>+\214\334>\342\244\327=\211j\320\2750 0<\224\326\200\275\234\357\353\275\2647\203<\373[\236>b\\\204\276\226\264\022>\256\360\247=HF\017>F\306\204\276f\346|\275!\303\204\276m\\\327\276\035\032\245\276\020DC=\254\306\257\275Y\376*<\2123o\276\324\024\256\276\222\371\277\275\274!\306\276\034\233X=3\205F\276\372%?\276\221\357\354\275\274\314\232=\210\331`\276\2332\376\275\343\215V\276\321\335\260=wFQ>\037}\274=\317\263\354>L\353b\275\037\032\031\276\014\034\223=%\262\223\275nZ\037>\3672D>4=v\277\\\270\021\276\277\360\242\274w\351%>GJ6\275<\2166=@\356\205\275\326$\003\276wt\202\276\334\334\353<\033J$\276\343\"S>\304\n\213>\212\204\024\276\202\314H\276N_\215\275\254\316\242\275\352~\244\275\246\334\355\2756\312\322=\272\316\364;&G\317\276T\333?\276\307G\005\276\365\271-\274\2656q\275Z\362!>\300\256 >\337\225\032\276\271{\205>\215\241C>\240\337\271\275q^K>\223\303Z\276\315\374,=\330]M\276\0326r\276>}o>\000\025\014:\036T`=\210\006\\>\342\331\361\275\277\240\273=\374u\377=\351\240\337=L\r\371<-C\350=K\177->\200+\205>b3V\276h\017/\276\303>\207=\3123\245=\243y\342\276\026\210\207>\353\231!>\305\316N>\375\270\236<V\'\227=\263!P\274\364P\255<\334!A\274e\211W\276\322\033\276>\343u\346;G\310m?\332\0266\276pP\236\276\262\324\t\276\257}\207\276\377\313\017\277\027f\352\276\375W\347\273\304R\264<\242\300\215=\336\334s>\004\025->\370\243_>\021\370\'\276p\005\027>\021\336\036\276\366\003\302=e\332>\2773Q\374\275\007\343,>\000e\372\274\215\353\320=\352K\256=g%&\277\213\215\010><\232)>E\224\013?\305!\253\273\312`\217\276\372;.\276\331\377\204>\342\322#\276\005\257\224\276\035xm\276p\207\001\276Kr\274>\217\322\275>\324\010\246\276`IR>\004\371z\276!\226\033>\350\227\177\276\234\370\220>S4\242\276\327\226\245\275\244\342\250>\034J\337\275\000\325\245\276\366\340&=\313\215\310>P\n\020>N\241\216<{\016:>1 \250\276\205\240\220\275]x\220\277\317L\224\276\260-3>\177A\035\276\263.\202=\303g+\276\"\312.\275\215^e\276-\341]=R\271\253\276,x\253>\036\252*>\306\317\321=\325=\014>\373e\345=\312\245\315\275\306Q\222>Ug\020\276m[D>\2275v\276\246$\363=X\216*>)6}\276\2305\222\276\275\276-\275k\233i\2757\315\342<\363\315\375=$g?>\305\367_\275\303\241\261\2750#Z\274\246g\033>o\253\034>g\226\214\276\217\227\201\276\276b\263\275(2(\276\264\036\227\275/@k\276/)h>\276S\216\275z \277\275\302\323\354;d\353\030\276\310\365K\275\024I`>\251\034\271=8\375>=\266\005\n\276\277\2474\275\324\'\236\275h\035\t\276\301\310\n=\335\033\270=]\377N\276\340<#\2748\3761>\307\317\214<`\300\351\276_\302\355=\364\277\322\275\362\255\023\276l*\203>\330S\321<^\214\247=\\\304\252=0\3224\276\232\t\016=,\3060>p\273\034>N\r\021>\316I\201\276\263\377c\276\234\nn=d\332\336\274qF\201\275\360\263\253=\246(k\275\267\333P\276=Q\n\276\372\351N\275\021\013R<\360\260r\275\024\214\203=\230\rg\275\352$\372=P\003.\276\277\215\262\275\003\3205\276V46>\307\314@\276\2178\237\275V\017\275=\231o\325\275~o\235=\326)\005>6Jc>J\274\251=\356L\206<\217\252\002\275\277m\030=<VG\2744V\332\275\361\227\356\275-\352\354=\227\376&\276\231\327$\275\236z\264\276\256\357\354\275\013\366\000<pm\347<\267\036\275<\271j\326\275\034\025c;\321A\t\273\027\223,\276)\324\207=k4\200\276\234\210\334=\336\246\230\275\256\256\214\274\2236;>\337Z\276\275\275\202\035=P\247t\276\246M\002\276\032\365\375\272?\3015>\033E\362<\3533\004\276\303\n\262\276\017\030\034=/\211\212\275V.\026>\216Ti>\t\305\006>\257z\203>\331\330\231\275\344\231\004>\345\340i;\025\203\337<2\264\203\274\037q\336=\n\277\310\274VF\203\275\300  >\321h\203\276\346\350\214\276\277\302\374;\037r\032\276\2234;>\020\224<>M\325\322\275a2{=\r\372t\276\021vE>n\332\006>\350\231\357;\241_7\273\016\320?\275\3478\214\276\026\350n9\216F\225\275\331\251\"=\344E\017\276\002d\234\275>f\005\275\2545\340\276\006z9>\213\352\221=\3627C>\360cS=\305\266\024=h*\274\275\322\211\006\276\366>\305<\312\244\237\275{\377\026\276\330\017j>D\272$>\024\001\355\275\356\353f=\305T\203\275\177+\030>KT\006>\216Pe<\300\266v>\026\371M>in6>\213\364\342\275m\275p\276+c\234\275*E\301=\217\003\026\275#\037\236\275\232\005\016>\354\244v\275\020\256\033>\335\326U>\206\323\310\275Z\2128\275\200\264\227\276K\261\005>\034\037\374<M\310\335;\026\"\252=]\301\272\274\t\031\326\274\204\014\037\275\231\322\237\275\246\177\233=\031\003\370\276\3441\265\274\215\350\001>r\331E>\342\352\263\275\345\231\277=\225\216\316=\217f;\276=\235\207\276\347\\\312>\372Z\t<t\201\231>&\2216\276\\o!>\326\305\364\275\033\200$\275\251\253A\276\275\245\323\274p\367\337=\314\265\017=\025]\224\276\352\365R;\320\'\021\274R\264\247>\206W!\275u\177\211\276\243\232\023>\301\002\366\275\021\352\020\276\006\3606>_\263v\276\346{T=\325\033{>Y\236f=[r\004\276\244\240\034<\\\346\n>\225)\244<\335\214\347=\247\231\037=K\336\331\275y\264\350\275\2215\222\275\301\253\276>\037:\247\2761G\022>\325*\\\276\3334\312=\344\342j=\347*\265=ds\236\275\266\352\274>`\335\307>\300\346\230=\027-i\276\022\177M=\236\317\356\273\256\203\231=\007\024\254\275\023\035\250\275+\276\365\275\240K\201\276\373\0140>\251n\017>\273\357\376>\253\370j\276\335h\013\276\347c\373>ko8\276\030\366;\276\264c\201\276X\363X>\3432#=\357\205\360\276<\351\231>\203\245Y\275\007\261\325\276}S\3429\324\315\270\276\311\n\036?\207e\035=\006\376\245=k\371\006?\177\013\204\275\342\320&\275\034\230;?\251\020\207>\316\274M<\351\344N\276 \275\025\276\016\000\032\277~O0\276=\313#?H~\260\276\212\271:=\023\300\016\277\021\215\274=\362\250\032?\272\036\016\277\2703)?\223\'\276>\245~P\276\252\343\200=\235\"\264\276o\271n\275\212\343e=\3261\017\2770\262\277>b5\002=\032\212\022\277E:-\276}v\216\277\376\013\016?\224\034\275=A\341\000\277,\253\025\275\355{\010\276\206\263\244\276p\255\020\276\3521\001\2764\360l=u\304>\275\271\3436=:\317\253<\026\244^=\336,\236\275U\332\211>\n&\313\275\033;\332>J\343=\276\214\204Z>e\360\246>)\223\277>\231&#\276R\250\315\276\206\243,>/k\306=\025T3?\266\033B>w\003\243>(\031\351>\005b\212=\211\321\365<\302\344b=\3011%\276\345\332\206\275P\022\037\277?/l\276\375\267\320\276/\207!=\013\037\202;\301\255\236>\0066\221\276\247\271A>\n&\233\275\207\\W\276\001\035.\275\210\376\t>\343p7>78i>\337\275\264=J$c>5&(\276ja\037\274\261\322\270=\263\241\367=h\210\344<\004]\327\276e\230#\276\353\205\230>DU.\275\234;\212>r\252\025\276\345\354S\276\311\221\"\276!\243\320>\354\020\301\273\270\230\326>\265\372\003>E\247\273>s=H=\202dP>\312<P\276\354\037\220\2766\213\025\276X=,>\253\314^=Q\224Q>\372s\300=Sl\017\276\263\306\225=m\353\240\276\220f\001?\"\013H>.O(?4\316\002>\316_\027\276f\004\244\275\323b\337\276\340\246\037\276X^\240\275\324\2600>\302S\324>|\224\031?\033\314\367\276\376\017\326\275\023v\347\276\036>\216\275tV?\276x\004\353>\323\341\177=\005\245\210\275\262\370\222=X\3678>\340=\202\276\034].?\316[\263=b\200O\276\276\000\003\276d4 \276/\312\013>\261\315\024\276\224\375\226\274\302,\024\276es\032?\34389>\253cu\276\340&\251\275\317\177\373\274\267\241=\276\025\2028\276\243\016\316\2768\347\251=\303qV>\224\327\244=\330F\264>3l\372\2762C\231\275\367\304\201\275\305M\247=\331g\260>:\335\376>\202\0311>q\260f>\317Z\245<D\377\214\275B\267j=\347\247=>\021\370{>\210\204\204<-\014\214\275\256[\021\276\031\000\324=\320\036m\276,?\372\275\253\207g\276g\202d\275\324\306\316\274\005#w>\021\rb\276C\004\2559\201\271-\274\004QQ\274\271\325\277\2743\022\017\276\316Z+\273u\312\200\275\260[\252=vEk\276EBE>\334\323\265=\306\207\343\275*_\214\276\273\255\324\275\311\002\361\275\327\352(=\024\027\360<\\[\224=l\244\203>\006\202N\274S8\017>xTE>{x\206\276?+R\276\243\230\035>\314\013\201\275\001f\367=[\022\007\273uI\217\275-\266\202\274\177\267\257=k(\225\275[w\201=\3251\314=u\243\014=\265n\374\275V\200\235=\247\033[\276\223[X=\353\226\024\274U\021\026>\272M\311\275\316\306\031\275X\235\332\275G\277\\<,\313\212=\272\367z>\r\312\035\275~X\273=\342\265}=tQ0\273\370\300\215\276\027\3603>\272\247\251<\374\351z=\002\236\203>8Y\266=\\\312\270=^\336^\276\302\355\327\274\265m\222\275\344\307\343=ecv\275IT\224\274S_)\276\242\366%\2732;\235=4\356-\276\021\376\350\274r\353\225\274t\251==\362\352\'\276\361\217C>\316\313(>\313\3639\275\024\231\215\275\311\275\203\276O\000\217\275\267>P\276#M\373;\254_3\274\247U\003\276ZI\037=5\204\336=\342<\022>f\253T\275\373\232\372=\014\3008\275N\336\207=\333-\031\276t\263\355\275\027[\245\274n;\220\275d~\366=y\261g\276\215\036\t\2754\3006\276\033\003\364\275A\277!=8Tr>\273\372\260\275\212K\016\275\330i\036\275>\313\301\275\311\320\001\2766\311J\275\205f\300=m\337\035;\276\270\267\275\363\250\255\274\213R]\2765\255\010\274\235\217f;\240\376\001\276Sj\001>\223c\r>\214\355-=Q\024\257<\t\307\260=Gw\314\275r6W\275\211\211,=\361\326\243\276\356\221e<\355\241\362=\272!\330=\244\rf\276Q\215\225\276z\363q>Q7\037=\244\340\302\275\244\263i=\273\016x\276\350\205\223\275O\037\035\276d~\307\273W\223\253>\036\361\223\274\210V\203<\334\211\n=h\274,>\210R\253\275\352k\212>n\331\346\275\032M\351=\364J\243=v\323\313;\361\270\246\275\225G\330\2723e\016>D-$\275\367\347\013\276Ar\245=(\2052=^\231C\276\341\371\021\275\007\355\355\276j\243\304=9\232\275\275T\247\346<\225?o=y\006@\2748\316c=\307\234M>\002\027m\2769\257\227<zC\270\276\225\3466\276\363B\037>\350\310o\276\010_\210=-\022y\275U:\022\2760\275\027\276\350E\035\276v\212\245\276[h\026\277\311\322_?*\221\024?\263\324g\276^\361$\2768\337\244=\351\005\333>x\0319\277\276\326\245\275]\3652>\317L\020\277\243>\231>\200b\006\276\3379\351\276g/\r?\020\241^\276\365\315y\274\366\373\220=R\2444?\264T\341\274\230\006?>\261\256\320\274\327\026i=\224\335\024\277\315\344\217\276\261Yn<:\305\231>p\017\317\2762>\202\276\n\232[\276`cd=\032\354\035?\225\177$\277e\305\002\277\367\355\247\276%\211]\276M\317\367>\034\342\214\276\321\240=>\243\302\354=\240\306+\276}G\021\276\0059.<P2\234>3\202\243\276\362\325Z\277{\370\262>\367\366\334>\002\"\r\276 \223\271<\202|)>\340h\325=\210\367N=X\323a>5\343\250>\342D\264\274\327\206#\276lv\010\275\310\365~\275\014\215\017\275O\240\234\276\340\237W\276\315\376V?9\212\216=\002S%\277\030\017\220>\204\273\270=\210\3509\276\331/(>\302\211\025\276%\330O?\317\301\037\300L\264%>\233J$>\345\242U>\222\363\203\272I\254N>\206\'R>$yg>\255\271i\276\343]_>\224\272\210\275d\344\317>\321?\362\275\274\213\003>v\306\314>:b\207>\234\212\017?\002\343\222>\234\314\013\276\376\250(\276\225H\266<\312\261\251=\351\217?>\222\247\030\276\230\335\230>\013\214u\276b\236\230=\340\350\033\277\241j\320>\355\342~?\260B\206\276\010\204Z<\254\262P\276^NP\276a\r[\275\364(\313\275\007%\362\276\321\272H>\225\230B>\273\243b?\366X\243\273\223\234\237>\033}|\276E\245\027=}\362\375\275I\2679=1\340\322>\004\300\010\277\245|\245=}\230f\276\211,\016\277\253\320\205\275\257\342m?+Z\024\276,I\n>\264\324~\274/\234\216>\033UL\2778\\N<\304\332\212>\003\016\202\276L\266u\276\\S:\276\004_^\275H{\341\275\277\037\305\274\00224>\027\211\245>9\221\302=\362\356\342<\317$\240\275\333D\003\276\017(\004\276\237\310\247\276\326^\036\275\036\323v\277\305\357\323=m\204E\277\305f\013>mb\216>\213 \366\275\343\263\301\275\222\252\036>\340\005&\276\320\212\227\276\327^,=\365\262\232\276yq\237\277\264\332\025>\346A?\275\314}%\275y\341&>\256&)=\333C\031>\010\371P>\340\205\005\276<\2618>\021\024\200>\032\340.\276\\V\300=\032c\254\275\345\256\202=\r4\"<\213\214d\276+O\252=\024\\\215\277(%\033\2750\"\210\275\317\331z;\336\354\221\276\t\335\272=\262\350}>\202i\016<\362*\351\276\303\213D>\022\307\371\275\235<\251\276\020\350@\276\333\373r\276\270;O\275\361\035\210\275@0f>l\317\357<E\225z\274\220\234\301=\021\215\220=r~\207\274w!\256\276\033]\027?\243\327U\276\364\245\302=\346}\227\275\030d\207>\026\211\000?p|~\276K\325\204>g\314\335\276Y\316\305\276:G\003\276\027\263\217\275,\264*\276\330\333H>\217b\234\276\273U\016\275\231\247\346<;K\207>\222H\215=@N\211>,\262G;^\215y>\206S\013\2761\352\363=I8\217>:fK>?\237?>\200e\004?\220\232T=fS\257\276x\2050\2765\230[>\313\230\371=\365\027\335>\224\020\262=\263N\244=\200`Y\276k\212\252\276\002\'\314>\363\254\204\276\274\356\370>\003\240\364>\031\370\270\275\274~\034>\346\371;=\303\013\266=\234N\274=\2174\265>A\037\020=\033|\360\275j\264L=\252J3>\270\2250\277[\332\267\276k\350\256\276@cz\275]\203\311\275N\326&=bL\340=\307\033\020\2763nX\276\326%\036=\273W\256\2750\306P\276\r\253U:\315\r\202\276\316\035\177\275\317.<\276-]b\275#\351\327=\230\321\204>Y\005\362=\240e<>4,\312\275\214+\264<\214K\375\2756K\201\275\246\257~\2752\030\233;\200\035h>\2262E>\224\361c>qt\224=\246\327\256=\001O^=r\tv\274y \025\276F\004->((\366=T\351\237<\36390\276\336;\323=|&E<J- \276\371:\227\275\006v\245=6~\206\275\014b\202\276?\274\250=4\277\013=\261!\222<\365K\200>\223\006Q>1$\016>\206\341\211>\347\365\215\275\247\223\215=\367\251;\275)k\217\276\351\262^\275\366\021\277\274\317\327\331\275\241\231\352\275a0\251=\377H\004>8\014\214=\205\0172\275\373\247\363<\214\004\023>\330\225a>\377\261S=\216\031\352\275\177h\210\276\270W\324\273\246X\017\2759hh\275\363\007\016>\247\326\267\275\343\271H\276\036\371\021=\347w)\276\236\343J>\311\301\032\276jh*\276y\376\206\275\217?\004>\333e\203;\257gw\275l\265@\274\273\357D>P\371r=\206\317+\276\005\265\231\274\030\310\000>\027#W\276\023L\007\276\212\326\016=1\253\254=\373\346\333=\245\034\275\274\344\n#\276\'\224Z=2\302K>\364\346p\276Y\345\217\276\374\226o=b\262B>e3@\276~>\307<\206\310\\>\342\305\245\275\230+\022>t\022t;\366R\024=\325R\010>\244\257\215\275\027\201=>O\010\247=\361$\366<R\212b>Vse\275n)\315<\024\3219\276\017{\273=\337\276e=kN\003\276\263\004#<\001,-\276\007\206\205\276\251z\317<\262\250S>8\317[:hq\351\275\354\037\335\275\301\312\377>|\3549\276N*t\274\301s\031\276\365\360\254\276\372\004\222<\237\372\035\276;>\005\276\255\330_\275\224A\n\276L\276\357=\n<1=\022\257Q\276\325.\n>\034\201P>\202S\004>\035\020\225\275\341\324\335\276gW\031=\240F\245\276\256\t\033>\303\n\026??\224f\277\3325\000\274\035\236/=S\320\021\2761\375(\276%^\313<A3\333=\334\023\203\275\361\200\201>\252\373\264\275\216\277\247=5_\332\275\0075\214>\244\3054\276\243\267\341>3B(>`\263\243\276\271U\377\275\300U\031\276\021x\247=\367w\036\276\201\336\026=_\rD\276\336\217\324=\227->=\246l\\>BqP=\216\241\230\275\000u\316=A\372\027>\341\252\215\275\322\234\300=\252\213\246>\365\340s>\346\301\021>\247z1\276\256\373\340>\247*\037>\277\347\351\275\024\032\301>so\216=X\212\306<A\253\352>#3;>y%\355>4\336\203>\260\001\005\277\311TI\274s\261_\275\226\000\345>\220]\007\276e\323\"=\220\020\214=S{G?\315u?\277C\214\205>\373\004\257>s?\307=\374\200\271>ku\016\277\352\'1\275\n\224\372\274\377\033\344=\"\330\316=\227\256\013?\217\244\331>\357=T?x\010\324\276\243\346\247=\302 1\277,\375>\276P\267\236\271\372\025\"?I*)\276|\211*?G\005\352>\240\311\203=\377\303f\277\350\325e> \"L\276(\244$\277\343\317\320;&\207\027=\217\263\024\276\276\271N\276:\343\243\275G\\\325\276\341,\022?\311\267?=\306\233\203\275\335\206\366\276\260v\204\276\0243J=\255\216\240>\2070\023\277$\325G=[Fx>P\213\255>\355\"\315>P\364\255\276\314\373l>3&\365;\336\261\034\276\202\336\033?el\013?V<\321\275\320Z\320=\332s\220;\232/\\\276y\315S\276~K\027\275\320=\355<\254~\">y\251\375=\366,.>\222N\025\276\223\201*\276\340N\234=6\032\021\276\223\356\222\275\372\001\303=k\314u\276L\016\234;,\255\216\276\345\375X\276\3279\230=\374<Z=\353\312\252<\315|\362\274\201\023\351\275\301\224\254=\027\234\016\274{\214i\276q\",\276-C\372\275\334$\034\276n\364g\275\310}?>\273\210E>]\333\033\276\236#\212=\313\3758<\230\001;>1\247\036\275\225&F\274\241\304\317\275\310\021M>\020z\333\275\"g\363\275\r\361.\276\3131\022\275B\365\337=#\330$\276s\204\276<<\327+>\245\357&=\215S1=z\317\246\274W\340\215\276q!+\276\303\251\016>\270\314W\276\267b%\276*>\222\276k\207\317\275>L\020\276\216\323D\276\207\230\203\274\341\013\374\275\300\212(\276Bk3=\021\212\020=\305\201\306=\377\372\\<O\344\020>\001k\317\27544C\276u\251d>\206*\020>\3604\031=\255P.>\345}\246>\321L\r>d\222v>\016\244\371\274=\260\247\275.\201\224>R\207>>N\327\234<4\257\205\275E\363\243=`\320\355\275U\260\264\276\313\310O<\020\013\025\276\243\376\017>w\346,\274\030k\366<\361y\250\275\200\302\334=\234h\314\274\3652\027\276\343\347,>\256\010\225>\366_\373=(\343\020\275\3727\253\275;\225\305=V*\226=\016%\302\275\016\307\203>]\213/>:\202\262\274\233f1\275\246-E=HeZ\276s\337\262=\326\212\034>cU\244=8;D>\177d\253\275sQ.\276\275s\233=\250\336\247<\'\253\265=P\370\335<f\313\305\274\374\304\224\276n\306\337\275\254\265\255\275\243\025\006\275UG\374=\030\206\005>\345UE\276\016\313x\275\350*\236\276^\270\327\274\206\253\253\275\325aQ\275\340qW>k\007\362\275\203\236\345;\265r\t=RK\004\276\017w\036\276\320\233\240\274&bw;e\335\243=\250*\272=\275%\210\276k\272c\2760\370f\275\004,\347=\367@\223\274\356V\231\276\335\226+\275\224\302\343\275\231C5\276{l\265\274j\316\374\274\302\n\372\275F\376\344=\262W>>\026\334\257\275=\224s\2760\010\300\273\356h1=dkn>mw\026\274\252L\306=K}.\276>\322\270=}\376\201>\262\306\362=Q\213\225=7\217\250\2751\216\220\275\005>7=\023\335\212>\311\262\307=5\331\255=\263F/\276J9\"\275f\353\016\276Q$\024\276\356%\317=5\207m\275\n\320\021=uO\302=\253\270\\>!\001\013\272\345\032i=bTH\276~}\277\274\212k\001\276\305h\263\275_\333\337\275\244\324\026>k\372\004?j\273\317\276\006\301\324?\263O\365;\031S\n\275\261\211q\276\rR@\276\016\031\367<\224\035E\277\363zx\276\243B\302\273\'\366\034\276\370\034\256=\275m\037\274\265\203$>#2\217\275\037!\241?1~\376=\007\n\207\276j\247\226\277-\355)\276\016Z\021>h\271J\277\320\371\375=\000F\247>ATg\276|H\353\273\244\023F\277\276\271\240?\t\314\222={d,>\226\032\235\2778\034q; \377\021\275\306\017\261\276P \022\276P\341B>\317\240\000>\270\002\006?\234 \317=\263\332\354\275#\316\262>\247\r^\275\000\321\230=Z$\025\274\tb\035\277\326\227x\276\244\233\217<>G\001\2771A\256>\342\353\037>C\231\334=\311\t]>A\275\264\275\3151p>\336\352\264\275\240\2708\276b\355\362>\234\336^?\'\021\335\273r\355\337>2j\313>\274\004\230>+mb\277\234\300`>\0326t\276I\2370\276\201^\217<n\244\305\275{\307\253\275&\275\343< \364\342\275\262\322\205\276\314\315\212\276\233m\351\275\306\332\254\275O\006\356=\342OV\277\037]\004>\331#`=\023q\315\275\352\337\206=X\013q=\344m\211\276=MP\275\023\317\226\275lh|=\007#\274\275\021S\242>\250\245\374=\336\3051\276\022\222\000\276\352\360\240:_V\200\275w\327\253=\272\265\260=\212\200\275=\234\034\342\276\021=\'\274\037\336\213=Y\006\022>h^A=\254\020K>\350@*>\353\1777\275\265\200q\276\353`T>`:\262\274\231\320\214\276M\2436\2764\021{=\036\241\340=&\340\242<\377U \276R\261\245\275\003`\212>\244D\260<5\233\305\274\212U\200\276\354&\354\275I\210\310\276\270\216\010=\316ku>\2237\226\275\211Q]\27634\260=\016\363\273>\344Ah>\200\177\335=\004\356\326\273]k*>\004\245\370>RY\377<T\336\177=\315x=\276M\030\261>\270\257\226\275u\307\354\274|3\242\274^\313a=\356\222!\276\312J\302\275\272b\025>e\241\203\276\253/\251>\372\301\026\275\360Z-=Ep\335=\344\001}>8\311C=\340`\376<\374\374\033=\362l\205>\177$\232\276\251\330\234=!\372\031?\374\264\"\276H{E>7|1\275\223+4\274\331\260K\276;6\023>\241\266)?\270\035\225>\006\004H>r\265_<\351\273\326\276\273\025\231<\002\217y;\002\t\267\276\347\235\206>WC\303=\032\003\230\275\344\355G=\327\321\214=r\363\177>\311\227(\276\205\235[=\230\336g\276\'d7><{\014\275\361&\322\275\375\251\214>.\256\274\276,9\327\273\034N\223\275^%\004=\347\'\000>\200\363\211\276`\355\335<c\376\325=-Cm>\026\361\230;f\321&\276\347\370\020>\343I\351>b\005\315>\"\035\306;|j\266=\230\016H\275\346>d\276\352s\207=\013\240\002\276}6\010\275\3421\313=\030\014\357\276!>\234\274\n\343T>\376\2249\276Z4\276=`\233\256=\ro6> 8\022>\n\250\350>)\210\232\276\266\374,=5C\370\275\277\320L> \200R\2756\337\035\275\311\250\332\276`\t\004\276\240\023\r>\337\237L> \022\321\275\307\326\227\277L\274]>\253\377\311<\257U]\276\014H\304=\355&\275\275\365(>>*h\346<\326L\330\274\263\245#>\257#Q>\274?\224\276\243\250\033>tR\313\275OB\245=\002\356\373=\214n\023\275m\221\257=6&T>\033\332\314=9\235*\275i\320\350\276\0350\205=\265\277O\277\337\256o=c}\217>\264s\000>nK\325\273\332\023\351\275\340\346.\276\232S\304\274. \243> \241.\277IL\027>\035\177\303>\210\325?\276\tW\024\276\031\007\212\276d\311\344>*,\242>\316\346\224\274\235\251\341=\204b\023?\341\356[\276\370\315\376\277\224\365^>*\355O>\002\342\352>\313U\264\276\341Q\206=\274 \223>\013\375\362;Sq\313=Y4\354?u\321\276>\'\261\"?\216\024\252\276\352d&>\246d\207\276\207\342A\277\343?\231:T\311\254<\262\022\225\276\335\363`>\000W\024\277\246f\310=\206\246\017\277\356\352\242>,\033\304>p\262\371\276\023\027X<\262e\302=\367[\\\277?\335\313\276T\330\233\274}\022\'\277k\013\322=%P\355\275?\003\271>P\276\317\2768w\000\277\315\235O\275\223\266\003?r3\270\276\252\274\274\274Z\301\3045:\200X>w\217=\276\264\304Z\276\201\204\002?\343Lr\275\027\245\036\275\351!\350>1\224\'?-?\006?\353\017X\276Z\334&=#\377\372\275\270*A=\353_\200\276vp\275=\007\334.=)\217\350\275\245\332h\276\224\377U<s\324N=\306\242<>!s\233<^d\322\275\033-S\276j[\210>\026}2\276\371\330\213\276\271\373W=\255\320]\276\207\376\307\275\031>\n\276z\320\371=>?\214=WW\023\276f\024\246=\r\337\315<\324A\224\275\233\206\264=\241^\277=\177y\242\275t%~\275^\014\257\275s\347<\2762\245\001\276E\212n=r\003V\276\315\226\327\275P\331\320=T\223~>#\327\003\276O\346P\276\216X\020\276\222W\217=%1\257<#\274\341=\250\257\031\274\006\021\305=h\316\323<Y-,\275\025\325\203>\322\355\036>\357\227\250<m<\305<\350\026\007\276\255H\036\276\361\242\345\274\364\035\177=\256\037\326\275\211\253k\276\225\365\304=E\034\004\275p\264G\271\361\341<\276\350\nv>\'-\005\276\346\017\330\274\377\\\006?\203\264\031\276P\005\200\276\014e\002\276P\335\356>\241\334>\277\007w\003\276*\251!\275\374bg>+Q\274=\010]\226>\027\034i\276\303\231\305=\374]\004\276\014\367`\276\223\361\">\203\264q\276?\376\026\276\024d\001?}]\202\273r\223\232>\304&\241\273O\341\034\276|]\014=\307a3\276\277\246%>)\020\354=\004\305\366>^T\n\276\217s\246>\245\0054=\334A+\276\271\275l\276\270\303\305\275Q.\026?,\306p=<\366\257=\313b\243\275\271(\031=TL\323\276\272\331\006><\306\003\277\000\3575\276\333S\212\275\203D\233>SY\r>\357D\226\276D\327l\275a\254\024>R\327\245\276a\374\026\276\027\277!<\272\345\314=\207B;\2758\315f\276\303\022\260>\342\003\302=\314h\025=\rF\266=\307\0336\276\366.\201\275\014\207y=\200 \347\276{2\316\276\334]i\276\023MF>u&\351\275b\356\276\275@4\372\275sI\327\274.\257\266\275\237R\244\275\236\324\235<v\231\343=\353\365\226=yEr\276\265au\276\" \005\275\367\323V\276\356h4\273Z\371\323\276?\375+>f\333\226>\\\373\214\276iO\305\273J\344\265\275\321\327\247<\370\021\037=*T\361=Z!\031\276\356{\307=,\357{>AM\350=\340\276\335;\250r&\276\032\026\027>.\345\323<\242\347\235=-\'\260=(\034\024\275\243\336\307<\261hZ\276\267X\034\276o#\032>2\201\301<d\252+\274W>c<.n\025\276K\315==R\215\201=Ao&>\266\220\352\275\004\242.\276\236N\356=\342\007\210;\346\240\025\276\333\217\234>\312\177\036>sI,\275<\375\205\275n,\000>\353\233r\276\004j|=0\210\235\275U\262\032>u\321X?\361Q\212\277\216\244%>d\202x?\177\315\270\277\365\212q\275\021K5\275\271~_>U\334\240>\023u!\276~$\321\275\267\2178\275\352\343\217\277\332,\342\275*\t;?\2734\227\276\202^\232?\020\037\266\275\206\204Y\276\261\020\007\277a\344\002\275\217\002\006>\025\204\210\277K\221\363>\370:\266\277\257w\241\277\222\265\203>`9\001\277@\214\267>\250Z8\275DF\233?\335M\010\277\242\217\236?JL\246\272\250\320\216\276x@\356<.\244\354>\365\010`\274\341\275\327>rL\373\276\357\020:\275\264\272\370\277|^x?J\331\031=\003\224\271\276\261\307U>\253\247\303=\036ru?-\025*\277\240}\222?\213XN\2743\257W>\252\t9>[#z> i\344=U\020\014?\022\265\023>\314\221\273>\264\036|>\207\232|\275\000\275\200?\262\'\276>9x\242?+\304\337=3\000\263>@\326\260=\036\363\260\275\200\377\205>IA%\277\261U\035=\020H\275=-\301s>U\214\246\275\230V\217>\242\341I\276\003\003\223>U\223\232\275\305\230)?\0038b\275L[\203<\224\024(>l\032\225\2773\320\200\275\206\367\222\276\304\236&>0\216\341\275\312\360\267\276\331|L>\027\365=?0SH\277K^\252=\322\256\r\2776\2501=\362\321\037>\320\331\003>\376g\227<&B\252?\312<\002<\366\000\031=EW\345\276/If?;!\226?\323\327\232\276f\2550\277@4\035\275\361/\357=5P\n\277b\227\213=\252\337\256\276\301G<?\222\365_\2756|_<\312\016\211\276\023\212\224\275\"\226\301\275v\363-?\211\326\033\277\242\352*>\227\251W?\246&\026?M5(=\335\265\361\276:\026\211\276?\363\267=\302\275)>d\337\202=^\304\271>\204h\022;\324\251\207>\024\201(\275\211\262q\276,\004\232>\005\334\353=\310[\212\274\313]\215\275\323\365}=\177\023-=\242\375\t\275\360\315?\274\222\n4=\037\343q>\2176}\275\363\212:\276\0131P>\004lM>x\260\250;tN\032\276\334\211\214;\265\366b=\3161\351\274\314\0261\276\246\006\263=\031t\212>\035T\033\274\326\350\036\276\241\276\035=~\024\320=\211\262\037\276\215\216\350\275n\024\177>j(5\275\370\302\005\276[-X\274`*\326\275/j\303\275\312F|\276\016\335\233\275\323F\203=\021\330\n\276\276\217?\274\353b\023>\022\033\020>\3534\r>\341;\036\276\003\225\311\275H,\017\276\r[T=sr\002\276\300\366\314\275,\"Q\276\326\334\322\275UxM\276\330m\004\276k\300->4\031n\275A\313\212\275\023\021x=\202\2422\274\331\226e=\243\273\030\276\373\\\021\276/i\r\276mW\325=\202Z\300>\313\023\347>\206\344\037>%\253l\275\321\036b\276\035x\000<<l|\2751\342W>\t1\004\266\204\223\224\275\326\0166\276)w\347>\331\n\255\276\001\304&>s\214Z\277:s\010\277X\216$\2769\221\314\275\300\330\214<\035 \235\274\327\347\317\275]\260\335=\227\232\035\277l\006{>\350\354\353=\340-}>_\354E\277!\311\336>\266\177%\273Zi\n\276\255\317@<f\246\267\276=\234\001\276\013\324f\275\225\266\300=\341\270\026\276\017n\234\276.\010\200?\034\364\020\276\203\236\010=\311,`>\255\340\003?h\250:=t\037\355\275\362\260\276\2775\316\022\276\250\271\r\276)\033\251\275XmQ?\322\307\033\276v\323\333>\360xr?\327\270\312\2752\005\357>\352}\371\275\370\231\030?a5x>\373\217\013>\252\311L\275\250\200\006>\354H\200\274\351\362\037\277\357\220q?\205\2006=O\277t\276\0317\263>/^\314\275h\251\317=\246B~\275\230J\017\274D\355\264=.\3608\276\030S]\275\345\377\241=\027\344g>|\374-\276q\366u\274\177\032$\276\222\273\001>R<\035=\343|,\276\343\300g\276|C\233=\303\350\265\275\321]\340=\230\215s\274\341\245\020>Wc\361\274/\034S\276\007W#>\231\241\247\274\274\330\202;\016P\302=:M\030>\350\332\\\275\014\223\\=*\013\007\276%\3466>?\007)\274\221\222\227=WW\242=\n\277\361\275\025\363\222\276a3\212=\242E\265\274\274\020m\276$\327\023=\234\350\321\275u\300\263<\301\202}<\027qU>:\3529\276\'\345\256\275G\335,\276\005\373\013=\371\032v\275!\353\252=\314$-=\240\306\023\276u\264{>\213#L>WSV\275\317\224\006>]\351%=\007\225\301=u\177N>\236\220\207<\323_\221\276\267u\354=ho\241>\367K\236>6\000\007>\"ws\276V\"|\275qd\017\276\214D[\274\305=\251\274\367!\262=&\264I=z1s\274\n\023\350\275\240AL=\264\316\251>\031\001\202\276\261;\355=\322t\272\275\273\020\260>\216>\343\275\243\000\356=\305]\267=\360\'\274=\363W\214\274X\303s\275\270\300\313\273R\354\311\274\374l\203\276 \345j\275\2377\021\276\260\237\206>\337\217\200=\0352c>\216{`\272\021\r\t>\301v\221\276\323\331\255\274\365\020\007=D\371\327>\251\016\351=\332\0239>\264\004O\276\265\350\253=\232\367\t\277\202\tA\276wy\252\275\224\372\000\275%:\253>s\257\321<\311.m=\206Lw\274\341\237\207\273p\0130=h\234-\276z\260@=\352\013\233\2760\236\341>\013\374\033\275\205.#>2\202\214\276\256\335N\276\325\247O\276\\/\000\276,\014K=\375&\240>\376<\003>\362\361\362=\255\211\326=\261p\t>\317\256\375\275\207\240\204\276\320\323\347=+u&>S\202M\2736\240\007\275\346O\333<WMf?M\253\033\275\317\227U>\217\273\273=G\326\276\275\005\367\312\274\333\354\\\276<\tq\274\023\377\304\275\235^\304\276\232\014\023>\255\026[>^V\327;\330;+\276i\242\231=[\016\030\275:\245\024\276s\337L<\371\323\275<CNS\276\276w8\275-\010\220>\377\257&\275\272G\216\275n\324\003=\327\271d>\000{\316\276\357H,\276\357\260\346=\257\200\244\276\371\3454\275\313Dq\275\252\215!\275\327w\310=\362#\333<67\305>c\200q=\333Rb>\324\033\200\276jJ\234>\355[u\276\310\215\261=\222\351\263\276\032\333\321>\231\261\222\275\325\210\305=\277\354h>{\344\266\275r\036L\276\250\325?=)\321\305\276\"\033U\275IsI\276+\271\274=?\216E\276\250\336\016>|\324\356<g/<:-\260\334\275y\376\225>\t\036\271\275S\357L\275\320$ \276\247d\254=\246\353\036\276\321\002\253;\007\246\300=\331m\016>\203\272\321\275\216t|\274\301wJ\276@\037+\276b4]>R=r\276g~\371\275\355g\372\275)L\244<\277\363\306<\250t\200>\344nU=\335\215\223\275\364\274<\272\013\377\337=\211\313\016>(8\307\274\313\026\010\276\204h\026\274\223Q\210\276-\375\010\275\254\365\342\275/)\204\276\265+\026=_Ez=qw\014\275\227X\020\274:\212\035=acJ>Z\010\255<~#\305\275@\305\350=\370\017o<B\203\002=\261\255\234\276\2628Q\276@\235\205>\017\270i\276J%\303<\211A\017\276\000\247\004=\005V\373\274\3458\256<J$c\276\'\0263=\255~N\274U\330\267\275C\323v>\177O\365=\022\305\251>\202\034\250\276S\211\271=C\274\210>\245eu<\276O\377=\355}\331\275\031\017N<\233\212T<#\263\326=#\002C\276\201\217\252\275\271\221\371=\250X\275\276\274\242\217>\3529\270\275\301\014\037>\215r\353\276\226\226\001>\252\232\211\275\371\375\210>_\007\335\273F\273_>\244\366\250\2766\327\002=>\2700\276\024\005\005\276k\344\005\276\214\206\264<\315\336\361\275t\336J\275\232\373\304\275\256r\220>r\006\301\273\320\272\227>\330\367S\275j\372\345:\242@W\276~6\024\276K9$\276d;\262\275\371\234d\276\266\010G>\351\244R>\236\253/\276\312\310i<b\206`>\353\343\373\275A\326\344\274~\266\374=l\010v>,\023\032=\266\260m>\257o\034\276S\177\t\276\220\007\006\275\211 \177\275\270\256`>\251\004\006\275\264s\263=\346\006\216>(<-=\322\333C\2766<\221\276\236\024.\276\335#\242=7\242\237\275,n\317\273\341n\307=ry\224=\231\304\335=\253x\002>d\250I\276\242\375`>\262E|\276Q\370\321\276\312\241\322=\315\353\001\275\211f\361\275K\253D\275JH7>\260\363/>\205\006\024>\267\215\272>T\010\007\276\343)\277=f\274\336=nt\036\276\250\251\263=\226\'\307\275\354\236\325\274$\302\033\276\261L\365<\267\020\036\275\331.8\274,x\206=\025\347c\275NL\247\275\314\245\031\276s\317D\276>w\017\276n\005\003\276\317\270B=\322X\207\275\001S\372;q\326\003\276\253\005\244\275\334\324\336\275\357\230f\276H\357\372;\177\314\202\276\013\243\n>\317\312\264\275S4,\276\231@\277\275\r\212\327;\340\t\305=\315F6\275t\313+\277>\366F\276\356\003\261\275L\026\313\274\353j$\276hbV>h\2623\276\316\317\324<\221\024@=E\204\351\274\261\330\264>\335A\360>\261q\n\275P|5\275^U_\275\353\036\203\276\255\273Y\276C\300:>\032a\267=\024\312$>\217f\346\2755\312\034>\231mM\274}\272@>\3403\032>_\264r\276\304\256\324\275\361\003P=|\364\312\274\317\250\251<\035v\224\276\3117->\376\344\364\2756?\356\276\224s\253\274P\335+\276\275\023\214>Dz\">\363\206D>\314\314\235>\264\366\245=\222\235\266>\r(\253\2769\317\330\275\177\002\r\277\373~z?*\204\200\276\250\177\213\275}\362\227\274\302\262\207>\225W1\276\254\340\226\275\257\010~\276\337\010R=\225.\230\276\260x\"\276\235[A\276D\267R\272(\222\006>\343~n\275\203\n\000\277\250\000\334=\023e\203\276\251\213\212>\370\025#>\232*S>\234\025M>T\272M>\317\343g\274`&\215<\255O\r\276a\002S\276(7\324=\005\351?\275u\2736=?6\370\276\223\262L\276x\3279=T\265g\274\272 T\276\353\224\302>\344\020\037\276 \026\256\275\230h\027=\033ZC\276bIf=\377\317\364\275\216\200\212><\314&=\265\323\210\275\3631%\275\305M\303\276\325\274\253\274\n\247n\276B\r\254=\356cb<,\335\253<\230\331u\276\375\375\013=\352\220 \275\266q\332=\241\212\017\276u%\361;\266Q\235>\030Mi>\365\327\223=\212\230\237=\205!\273\275\364\275\310=\242/\243\276\226\236\013>&\000\026\275D\037\037\276\377g\223\272\340\376R>\016\007\016\275z\033\014>p\0244;:\264\253=\214\245\322\276iS\034=6\221X=y\327\371\275\214\275\236\276p7]>l\250\210\276y[%=\'\330\273:l2\256=v\235X\276(\206\275\276Z\265\355\275\257|\313\276\342z\214<\322\200\204>\350\301M<1\216\377\275\200Z\207>\221aQ\2767\026\025\276hg\204=\026\3239\276\030v\203\276\263\356\n\276J\331D\276\300\214%=e7{=\265b(\275\001\223\205\275\327\304\245\275t\205\346\275Bg\"\276\210\204Z=\344\007t=A|\342=\327\357\017\275\003s%\275\354?\301\276)\373y>\'\213\016\276Ff\323=\0305\362\275\216\251b>\207X\215<\2311\315\276\332\030\312=|\014{\276\357\021\241=\313\300M\276\213\220\360=\177\207{\275b)\306\275\3233\231\275\317\355\221=\017,\203\276\025H\234=sU\'\276[\301m\276#\324I\274\032\333\035<\223\177\316\275\'\212\230\275\230?E\276\022\274\373\275m/w=,\225\242\276C\360\241\275\314Z0>2\006\002\276\3518;\275\362\004\324=\037\326\243=\341;\236:\000\240\351\275\355\220\223\275\326\254\354<\240\0065\276\247\023\022\276\3120\335\275:H\225>2\377\210\276\\r\243=}\304\311=\022\242\214>\205\226\301>c\315Q:a\212[\276\213#r\276\031\270\366\276\307R\273=\037O\277\274\255\314b=\333(@>\323\267\264>!\014<\2765wa\276]\315\256\276g\177\016\276\304\177\014\276=w\034?z\273\301\275\356\275(>\036h\017>\360\247\026\276\006\256 \277S\353\232\276R\024\371=\037r\032>\001\273\360\276e\226\246=P\370\036\276\001u\221>\263U\317\274\013j\032\277\244<\242\276\333\376\252=x\216\344\276}\263\270\276x\326\331\276*%\250>\256=\203\273\220\t\355>\345\346\376\275\\N/>\334\315\002\277\264\030\010\276Rs\"\277,hK=\332\305\334;yN.>\354\nG<s\357\275=\221\373\376\274\230{\255\275\216v\205\276\314U\253=\325\"\335>siQ?+G\224\275\247\3450\275\317\030g\275u-:\276\210\276\345\276\202\225N\275\370\233\021>\270QU>\322\301\236>\234wp=\220\205\007\276\035\016\344\2754\376\252<]z3>IvK>\245\331y=-G\307<\010\202\027>\017\241\241\276D\257\201<\354\334\313\275\2473\304\275T\366\233==\234\205\276m\365)\274\314\373u\277\n.\225=\324\004\202>\214\227L\276zN\275>\266\270\303\275\314\244\264\276\323\257\017\2763L#\276\345\337\331\274|\\F= \344\013>\035\234\003=\232\204l>\372\222\002\276\000,\365\275\205C\244\276Z\207\022>5\267 \275\216\346\217\276\350\236\025\273\304\224\373\275z\300\n\276\002\377X\276\257\361%\275\377\026\256\275\246Y \276k\224\277\275dW5\276A[\224\2751\265\207\275\214\332L<\352\332\245=\252b.<\251\3230\276\tk\311=Zk\320<E\026\252<Vs\232\276u\027\336>]\250\014=\200\315)\276Pn\230>+\314\370:;p\r\276X\356\243\276\332\027q\277o\313\003?\2270v>\313n\360\276ru?\274(\217\343=\200A\016>`\233\222>7L\322=B\313L=\226=\256\275\"\361\374\275*\2617\275T\013\r\276h.\034?%\021\306\275\322\302+=\026\207\305=\212\177\357\275\312\027\235:5\326\021?\337\030\332=}o\274\275~\217;\276z\314\370=_<\372<\0106\022>\307R\r\2760\227\226=\273\303\216\275\375\261\224\277\350\025m?\207\367\344\275\034\202\377\275\207H\026>\317\305\224\275O@\211\276\2004%>\331\016\265<d\332\306\275[\364F\276\245\256v>.=\211\274PYp=\251\375\324\275\336?\207\276\003\364.\273\252\007\233=\221t\202\277\323\274\330\275\007\356\333\275\214\223\216>e\"\005>o\274\223>I\303m>z\273\026\276B,m>(\335\355=\335\370\214\276\320\261\376\275\350\216\367\276E[\364\275mr~>\003\304\262=\224\343n\274t%\200=\026\341\004>Ap\217\276\037\223\005\2765m\003>\263\352c\276\265\007e=\007\375\342=!\r%\276\245n\n>\370#\262\274&\260\036\276\332\325\025=?\274\210=\257\215\033>\031\2745>\t\250\005\275\215_\\=\330\211\177\2756;\232\276, \247\275m#\233;B\026\017\275\275A\204=\331\023h\276\262\342<>2\266\277\274\027\223\200\275\302\354D<\0360\271\275\tQ[\276\321\233g\276\336\'/\276\376w;\273\342\036k\275\234rP\275k\335\274;\316\334\270=\367Y\010\2754\3345\275\200\216\r\275\315\276\261=L\261\376\275_\014\237\275y\232\024\276\031\274\370;`\260\251\275\213X\n=\030.\224\276\264\337\311\2732X\311=\324\325-\276\322\356\005\275\013\016\375\273?=i>\372\247N\276{\035V=a3\302\275SJ\t;t\321T\276{`\277\274\326MA=+oi>o\240\000?\210P\271\275\301\230&>a\360#<\315k\216=\232\200W\276\022?\367;\345\304S\275\014&\203\276\324\364Z\276D\005\214>]Q\326\275f\303`=\252\3676=1\024\206\277w\356\031\276\0041\261=\210r\275=\322N1>\215E;:\3048\026>\313\235\201>\207\376,\275\257\270^\276@\277\323=i\276\013\276\211\214\317<\212\377\270=\2740\243\275!c!>w|\200\276\333\302\347\275\216\376\351>]%\305\276\020G\027\276\373\210\002\275\366c\253<*\013\314\275U\226\020>(\204p=HG\321=:\035l>Q\320N\276s\013t>!\354J\276\372lM\276\327\271H>2\t\223\275\365\335\177\276\254\370\370<\214\036\241\275\377\3359>\003D\222<\356\037\030>\021u\247=\215\304\034\276\232k\336=\254\320u>\344z\356=\177\037u>\022\327\266=\0134\255\275\265\216Y\276\027\321\314=\261\230\">\206\027\226\276q\375\206=L\227\003>\035\027\346\275iis\275\355\373>\275\324\001\213\274x\357\304\275\355\026\006\276\203,L>P@\226\275\2147\257\276\327\035\020>^\301;>\356\327O=\261Ut\276\325h\202>\3143D>\2278\016>\357H\364=MJ\327\275\340+]>\021\246\354\275\000`\n=$\t\001>\310V\345\275tW\320=\nY\006>\027Ug\276\321\337\032\275\271\355\005>\tc\234\274E1m=\013\205\221=\215\236u\276\214\364G>\301\010\r>N\301}=\305\032\335\275\361=\352\274\262\300\023\275\001\370\001\276\356\212\267=N\311 \276$A\311;\304\341\225>\220#\230\275\\\3100>\377\235->\200X\027\275@i2=\210\261T>F\255\272=\t\024\372:\007a~<\311\350\317\274hD\234=\206\315Y\276i\310%>\324\313@\275\007_\343=\207ah>Qm\207\275\330\3143\275I8x\275\203j\247=\245\232i>D\344\005\276\330\321p=\341\0161\274Y\013\r\276\301-g\274!\325\377\274p\000x\275\252\232\363=!\262\013\276\177\027\t\276\331\\\034\276<\245a\276\372\235k>,\'7>z\010\314\274\315\317\245=uyo\276c\304g\276\217\226\023\276`\004\004=l*X=l.\263=?\367[=\312\310\211=oI\001>8u+\273\344`8\275\316Z\004<v\222\323<\n\241\236=\214\n\026>\372\265`\276\352\"\216=\375{\322=0=x\275M\264\241={\222*=\326\237\323=\351Z&\276\307\243\322=\254r\204\276\345\250\345=\272]\376\275\215\206\372\275wx\301\275!\221\303<Y\276\256\275kA\016<\321\010`<y\335`\276V`H>:V\212\275_b\024=)\321F=\327Mz>\023x?>\311\207\270\275\325\236^;\343\251\315=f6\263=\321\351\023>\221\t\243\276\372K\344=\240\223\220>C\267\207\276\3357\000\276cI\307\274\377jE\274\014J4\276\220\330\325\275\217q$\275\332\026\345\275\240\263\272\275Jl\356;\200k \276u\341u\275alb>y\223K>nN\324\274E\215N\276\334&\272\275\230\241\245\275\207{\202\276\034\334\232=\255ii=\"\324\213\276\346\343R>\344V\202>\006S\026\276\210\256\250\276\003\'|>l\233\241\275\203\024\201>\226)\367\275R0\225>\326JA=\030z\014\276\306\021V>\211\027\034\276\013@\201\275\016\371T>\324( \275\177\n\242<h*\240=9\251\237\276\376<\221>\3656N:7\344Y>\2739\203\276\222\026\307<\315\335\032=\236\253\021\276\240\215J\2765oI=T\267\322\275\2147\322\275p\364f>/=\033\276v\334\005\276\235\304\315\274\303\251\266=\303\001\t\276\230;\350=\024\324/=\250[\265\275\275\037%\276\223\317*\275\360\250\233\275\371\253x\276/X4\276k\216G\276u\203D=5P\372\275\030\233\021\275\3637 \275\353\251\227\275\202\002\315\275I\331\200<`\310h\276$Q_=\361\234 >\342:O>\222\270#>d\237G>\317=\202>\250\302@\276\330<k=bFU\276M\274\r\276\274x\017\276p\023\353=Y\315D>\251\231\234\273\364_\365\275\364\006\324\275\026\210\306=\232\333\210\275\365\205\314=]\016]\276\2430\247\275\264\235\203<\213J\354\275\'\201\364<Q\303\260\2750(3\275_\360\366\274\206\013:\274\362tY<\322\355#\275\213\333u<$\236\r>\255\207\311;\177?=\275\0278\233\274\240B\217\275\215\327\347\274x\034\263=\333\376\016\273}m\013>\276q\001\275J\177\266\2754\353\204>\033\304W\276\3444\027\2765\243\233\275x\030I\274\232\2774>\017+\304\276eXV<#\206\357=\355\262\342;\243\001@\276\n\006\336=T\341\255=\224\037(\277[Q\313>\232\035\345=\006\367\220\275\201x\237\273\022 \370=\003R\\=,\323\323\276\237\362\021>\272\347>\277\010\211\335>\267\217\373=\377C\027\275N\370v\275\322\354Z=\021\002%\277\324@\337=\022\227\234\276\177\340\266\276R\302\177=\021\032\">O\317\036>G\007\346\273;\300\375\2767\276\223\275\341U\362\276\220\3555\276:\003\272:\013?k>\033\226V>f\205\352=k\226\220<\257\250\360>\177\202\200=3\261w>\343\263^>y\227\230\273\372\nQ>\013+\"\277\213\035\213>q\\\253>\353\033\360\275\355\204\025>\326\260\223\271\353\3411\276\227\373\265>C\234\333\2757a2\275\356D\327>\354\004\311\276H\224\226\275R\016\032\275W\254J\276>\024\362<-\013\037\277H\022\364\276\323\334\030>\357H\240>\316y\034\277\014K\010>\016\312?\276\350 W>\362&u=tb&\27553\027>\257\214\230\277\273#\253=\232\231(=\362\322\007\276\2330\003?\327\336\311\273$1\300\276\225:\262=9\311>\276b\263U?\276\2673\276F\210u<\351`1\276\t\341\013?\237\216\221\276s\331\351=\364\314\n\277\331/K?`\236\266\275\340\311\210>\346\020\206\276lN\252=?\336\277\276S\014I>k\312\031>0\3665\276M\324w\276\225_\243\274Z\357\204\275\251q\353?\013Z\257>\231@\244>\240\306d\276\027\376\331\276\"$\253\276At\\\276\013#\206\276\n\315 \276\323\374\006=\315\310\206?L{\236>/v\340\276G\027\363=\313\271\206>\030T\332\275M\204\242\275\267\214\301>\352\327\013\276<\316\336\2762\363\240>V\303\252?\300\253\"\276L\206\334=\265v\035\277\243\3704\276g\304\235\277\344\312\207\275\200\370<>K6?<M\371\315=\362\327(>\023=\023\2751\305+>\nI\261\276dQl>d\316\232=.cE\276r\357\267\275Y\2266>\203n\305>\252\220\005\276\247\024\006>\370\270u\275\300\306\035=\343\3664=\276\363\331<t\033?\276\304@\225\275\235x\305\275z\365\003\276%S\r>\314E:=\3338\r\276\305\260&>\003Q?>\320[~\276]\260\234\274\261|R>\2051\201>d\271k>$#\276=\333\204.>\310\256\027\276\325)X><z\004\276E)\224\275\343\304\022\276o\243 \275\024\"\014=\234^\243=3\031\342=P\023\300=\224\010\021\275\217\2319=\267\"\262=H\374\363<6(+\276\340-T\276\372\342\">m\tJ\276\3149$\276\360|(>n\t\305?\022\314\">\262\016\'>\030\nW>6QO\275%\006\213\276\343\361\343<\207n\014\276\226\033\300=\005 m\277\300\300\274>Z%\220\275p{\313\275\354q\302=\271}M=M|4?s\276\003\276~$&=\304\340O<W|\322><:\251\275\344Y\022=h\343\237=_\222\006?e\255\206=\203\tJ\276\225:M=\264Z!\276Z,+\276\357>p\275\374|\356>=\372\276>\353O\'>0)\256\276\031t\274\275\363\240\247\275.\374#\276\330\331\007>\313\205\023=V\343\203\277+\231\005?\353\020\032>H\214\021\276H\021\347\2767\225\'=:xf\276.\316\315\276\264?\254=%X\350=\2576\304<o\231\364\275\272`\010=($\220\276<\243\227=\217Vt\276B\2539>\200\312P\276\344\363\323>ri\217>\005\236P>pyp\275\346\246\333=@\236\304=9\335\265>\377_\016>\363\2748\276\270\334\260\275L\017q=+\376^\27655#>w\201\321=>\316/\274\0073v>.\251q>\203\202\376=\320\237\340\275\204}\221\276\213\367\"\275\252H\271=U\220\207=b8\003\273\026Gg=\315T\273<\225(\273=\232\203\267;\316G\371=%\267V>?\325\250=:\252\334>\006\2745=\272\272/\275P\240\275\276N\r\213=\322\205\006\277O\223\371=\215\271\275<\366p\235\275Ex\t\276%s\001\2767e_;\375\305\376>_x\307=\033\033\010<I\217\034\277 ;i\276\207\251\237?\346\2136\276\313l#<[\377\261\276n\264\004>U\377\221=\277\244\274\275Z\033\220\275\377\246\n\276\277\232\022>\274\210\200>\251\306\275\276\223z\016>\264\305\261>\353\216.>\023-\203\276\352\222\203=\200\3312\275\261[\002\276\213zy\276p\217\310=Y\360D=_Y\205>\226x\273=*ms<\217\022\031>\007\200\326<\037*B?\001\222\340>\317\037\212\276\227\000\337<\032t\320<m\230[>{\351\237=M\002\034\276\240)\353\276,\277\222\275\352\022\036\276\260\251\315>\203\274\375\275]K\354<\2224Q;\253\347\025>\341q\255<G\315\377<\205\334K>bxJ\276\265\270~>\340\\\325\274?-\"\276&\3552\276\302~\005>\236u\221\276\237\374\267>\346E\025>\262\rk>\301 &\276\315\016[\275\370w\032<\267T\354=\301C\014\275@u\024>@L\237\276\245\347>=\373\345\026=^\266A>\345\256\203\276\224\234\300>\204g\274\275\275\351\313\274U1\223\276U\035\257\275\222\\`=\266R\254\275\'b\250=\307P\014\277\263\221\354>m\230\272=\254%\000<\347\325Y\276|\364\032>\372\316\377=\2608E>\024\027\313=\254|\023>:X3>\244\013\321\2755\364\236>\255\t\'\276\220\366\233\276\331\021A=\355R\031\276\035\242g>\264\355\334=\234,1>\272\371|\276\347N\250>\006\361\"\275#o\304\276\357xj\276\'1\274\275\013\201\374=\3236\236\276\357V9>\212_,\276\007S\376\274\324t\360=P%O\275\'\211\203=\264X\003\276\373\265\371\275\225V\306=\365\374I>\217o\314=[\355\007\276\277\265=>\301}6\276E\177\302\276>\\\024>\356\237\225<\236\024\010\276S\242\215\276\326x\226\275e{\210=$\342\204\274\314\036\036>\213\347\002>\233\252\245\275\307a\010\276\262\355\017\275;\232\t\276\254\226\'>\027\021\304\275\276\341\026=\352\217z\276\244Pi=L\355A=w~:=&<\272\275\027#\370=\347[\305\275q@\257\275\305L\354\275!\375\234>\221\356:>\336\017\365\275K\267\307\276\247\332W>\362\371\227\275\227D\305<9\316\257\276q%\201\275\021p\334\275\354Bk\276\252T\037<\302\244J\276)U.\275()j>.\224\006\276\227Z\262\276\257S\221\276\224\255\210\276:\372j>z\332(\276\344\214l<4\206\215=\0320\"\276\336\374\033>\302=\267\275\255\234\344\275-\353\027\274\325r\360\272\307\017\224\276\022\"\314=\320%z\274\335!\310<\004k\330=\005\251\203>\n4\262\275\003\317\245\275\305\240\253\2758I\364\276\376P\006\276\225\322w\276o\2714=\033\257-\275\334\177h>\313Lg\276\323\320\267\275\225\312\n\276\253\370\327\2756G\277;\271\315-\276\355\235\252\275=<\212\275-3)\276e\304\033\276\277j\327=\355U\212>\321jf>\031\334\325\274T_\253=\374\035\361=\n\350\232\275d\255\256\276D\363\345\275\324\330\211\275I\032\321\275\035\251\202=\212\312\272\274\031\026\037>\320\317r\276f\311\316\275\032\221\321\274N\2206\276@[y\276\347\376\272=Zk\203\274\254\300\212=\352\314\023\276+2\007>\326\313\200=7\206v\275\367\302\216\276T\367\003\276\222\005\261\275D\357\313\276=8\261\275\023\277\220=\361r2\275\007\252>;f%\026=\311R\r<\367x\232\274d\265\300=\352\016\271=_|O=m!\225<p\347\027>\336\177\221>\353\202r=\237\364\267\274\271\354\214\2762X\315\275I?\002=\327\224.\276\373m\335\275\371\204\333\275W<\326<\215\027\276\275\271\233\024\276\241\327w>Y`Y=\341\002\214\276\233q\274=\361\311\026\275\376\361\234<|=\354<\312\362\004>\322\324J>\017\265\240\275\206b\254=<\002\263\272b\214p\275\265Q%>)\030\000>\362\216\037\276\234\352\017\273\320\322W>n\005\247=\261\372s=\223\241\007=\377\364;>\253/\231=;\034i\274B\031O\276\200\303\354\275\242\026=\276\257\371\355\273\177lh=\2260\021\276dh\261\276\275h\206\276?\301\210\276T\330\r>\255\'\207>r\305\t\276f\033\220>s\233\326>;:\037>/[\256>\271\373\332<\013r\331\275\3169]>i\344\307>\022\347\304>\335\357]\276M\375\322=L`I>\253\207\037<\357\203\'?\377t\350\276\3670\244\275\246\262L\275\277K\271\272\263<X>\225\030\243\277\303\320&\2740\3028?\254\331\r\275\241\366@>\254\341\'\277;M\245=\232\354\302=\310\224d\274MD1>\262\320\020\275T\3550?si\256\275\201\200\213\275\355\300\023\273\274S\005?8Fn>0\347r\276L\277*=\306\240H\276oTv\276N\363\204\276QtC\275\206\354\230\276\224\2321\275\300(\024\277\311\177\311\275+\026K?vA\246<\320\255\250>4%\263\276%\374\031=t\345\351>Y\362~>(\007 \276\367\274L=\2364\220\274\237\n\\=H.\334\276\256\275\245\273\311`{\274\215L\017>\302\320\211=\354\222\251\276\250\010\212=l\314\3679\2620+\276f\305}\276\001\306\234=\301\375\r=\243$L>\304{^\275\036\276\020\276a\254\"\276\005O\374\275\t\211\031>\032\317\202=m(\210\273\374\216F=\335\316->(*\017>c\024\375\275\331\345\226\275\214m6\276\222\034\014\276 \325v\276\001\r\320\275&w\"\277 \352\276\275r\272\273\276\000:B=\3459\212\273^\324\216\275\214\301\265\275\037M8\276\320V\204=\301\222=\275\255\027\001\275d\373\360\276\235vY>\2333\217>k\034\006\276\220\355J\275\345\007\225=\370\212\032\276\304\272r\275\013r`>#\320\204=\317\256\334\275\320v3>WR\004\276\307\344\361=\344\360\222\275>\305l>\305\207\330=z\325h\276\250Y<>\213\217z\276\242@\252\271\313E\371\275\177\367\025\276\214\236\216\277\022\370\241>\243\204\341=;\024\027=\030\233\211=\313\0070\276&0\245\274f;M\276\344{\247=Q\275\212<\215QK\276{\035\216\275\013y%\276\331\353\244=\204\360}\276\216\267\207=\002\374\356\275O\262U\275\250h\032>\204\347P\276\033\275$\275\351\307\355\275BC0=\004_$\276\013\366\\>F\241\276\274\202\354\355=\264\355\206>\177\021\274\275\252\347l\275m+\234=\250\001_\276\243\240\326\275`\204>\275`\236\321\275\246\361\031\275\361\340B=\020\367L\276*\237\263=\345\014\364=Y^P>v=\344=\350\234(>\010\220\001\276\227\310>>\211\016\024\276\246\223)\276e\202%>\373\336\005>\034z\231<t\262 >\207\316\034>\341l\215>&\373g=\264\372Y\276No >_\312\255=@\311\263\275\255h\016\276\006|\030>N\223\376=\243\246v=\267H >5v\t=\233e\005\274\245\305\017>#\024>\276y2\200\275\026\035\316\275\033\327\354<\353\222\331=#\207\037>\013\237\300\276\034i\233\276\006\302\257;\227\013\316=\037\337>>H\016\032\276_\225\024=\035\240w?\373\331\315=o\337\223\275F\366N>2\256Y\276\346q\373=n\032\004>\275\335\357\276OK\262\276\336\002\n\276\225\026\336>\255\323\357<dN6=\377\321\203\2757\267G\275\016E\322\276\251\315\337\275F\351\262\276\267\352Z>G\263\255:-E\240>f$\275\276\251?m=\230\267I\275\000\245\020>\237\002\352>(\324)\277\004wg\276\213P{>\3040&\274_4\026\277>\356\377>\273\022\214=Mt\236=\nG\235\275k\205$\273\n\232\035\276b\250N?T(P\276\361\351\373>\020\257\302\276\221\260\377=\375]\374\276\360\317#\276\363\327\004>\n\376\230>\264M\305\275\251\230$\275*Z\307\276\025F9\276\224\347\376\276\314\350\236\276\023\360S\274EN\025\276\225\245\\\276\"\240\026\276\232\256\265>c\301n\276\232%\017\276\037\373\022>c\323\245=\272\232\341\275\372k\007\276.\273X\275;m\004<pV\342=*B\004\276\026I\304=|(\215<C\"\016<p/\263\277<\335\306\275\254\0161>\2162\200>4x\207=\342\204\003\276~.\327<C\322\265\275\221\367\354\275\353\342\210>.r\316\2753\253\025>+\010\267\274[*f<\333z\t\275<\214\245<\2413F\275\327\372\232=\375\364L\276M\033\236=h\024\222\277h\177\365\275\202d#\276s+\030>?\035\242\275L\211\253\274\0036\177>\364\001Y=\221\303\206\275\020\024\017>[\351\014\276\000\266\023=\247x\225\275l\'+\276\355\030p\2735YK\276\342\313\344\275\206l\020>\224\224v\276\274~\231\275\336/^\276\302\327\233\2755w\335\2755bK\277\035}\017<\2139\206\274\303\300[\275\257\311\264=\014\005!\275\206\317o>\224W\002>\216\302I\276\214\006\002\275\326\"l\276p\013\205;\202\303\350=\2357\322\275\266\023B=L\274\341\273\206nv\274%IW\276W\231i\276A\250=\276\212\177y>&\004?=u\310\004\276\335\321\203=\003\324A;\365\321\270\275\300\337\022=Jn\365\274\266#\203=(\242\354=#P\230=?Wf\275\2337\331<rei\275\321\032\373\275\330\341\364\275\363J\340=W\247Y\276\"\364\277;\367\026\375=@n\347<\t\367\010=z\2220\273\232\312/>\331\224\033\275Bk\251;}\333\330\274\324\002I\274\315\334\371\274~\370\226\274\331r\027\276\020\336,=\370Nb\276\244\232\277<*\327\030>&*\220\274\177\244E>~\336c\275\244\341f=\023\007f<1)\013>\211\220\331=\246\037\"\276\2048\231=\001\'\366\274\233^\341\275\272\250\002>\341\020\002\274\356\243C\275\226\232h\275\257d\273;\375\275\272\275\022]\324\273\310\376\256=\311\302\034\275i\201\227\276W}\023\276q\271\001\276\313i\321=\'\203=\276F+\241=k-\267\275\270k\200\275d\004%\276\364\235G\275?\216\274\275\314\224\234\274ro\"\276\355\305\204\2759\n\311\274AD\215\276\314\347g>\010\225\203\275u\273\302\274\363\320\326\275\033\020\035=j\221\245=9\371\353<V\037u\275>\245\257<LBS=\370\330v\276\2036\204=\001\321\211< \276&>\t\344\353\275\212Z:\273\212\237\006\276w\312\202=;\323\212=\336\024\t>7\274\000>\273_\033\275\347\215{=\262A\372=\r\200\230=\352}\026\276\310,\352=P\252\351\275\025?,>\367\216\004>F\311\236=N\000$\275\2270\207\276\366\t[>\305\300A>\221K\302\275\200t\272\275A)\370<\373\245\357\275\036\365u\276E\'\206\276\233\366\302=/\016\367<`\324t\276\344E0>\336\325\"=\364\325\r=j\305F\276)\\\357=\235\013\034\275\341\333g>C\353\214\275\216\254\322\276\'\t\203\276\271\276\317\275\361\014?=t&\"\276\274\366\376>B\326\341>\376O\004\277\311q\017\276\336\263\t\276\267\235\372=\242\254\331=\341\"\231=\034\256\224\275\240-\037>\t\322\273>\304h\211\2768\262\256\275\nq2>\207\235\366\275\277\236\352>\212\266\227\2768\025\373\273sE\215\276\347n\203\277b\301H\276\332<\261\276G\260\324\275\375\313)>`a\367<~s\206\276F\223\335>\206\212\204=\235zo=\310\367\346<\377\367\213=\372\241~;G\311\264=f\307\245\275\230\367\036?\273\006\r\275\005\224\235\274\001]\300<X\327\000>\267@\253\276A*\210\275e\374\364=\007\030P>\036\023\262=\032\266\304=\233\307\347>\254\310\227\275\227\016\232=!\324\236>\264\027\325\276P\220\016\277\227\315\257<\254\302\214>\342\215\223\276\231\243\205=\2706_<.\371\034=@\242\224=\026\213\036=\360\220\017\276C\322\313=\001R\021\276\313\010\027=\350{\310\273\302\263K>\246hf=\022N\221=\343\272\235=\210\252\017>\214\227(\276\250\327\262\275E\027\\\275\326\345/\276\017\230\221\276beI\276\024\363o<\334N->w\017\000>\236\313F\276\200H;\274\016\227\024\274(\230\227=I\214h\276\276\246\035\275\365\000\206\275\204\250\016\277\347\3704\275\020S\235\275\371\200\257\275p\345\007\2755\353\200\275\275\033U=t\241o>\310wY\276\200\243\025\276\2441 <\320\337\372<\022\235\026>{\242g\274\245SO>\363LZ\275`y\030>L\307\260<\036\0212<~)\335\275\341\327\225\275V\371i\276_W:<\270\245\262\276W\301\334<\200\225->s\254@\276\245\201\271=\373\270H=\013G\216>\314\247A>\360\357`\276\227\000\203\275\365U!\276\272xo>\345\031B=\036+\014>\030\361W>\257\253W>{N\323<\251\222\305\275N\213@\275\206 \n\275\205\261\006\276d\2556=i\0247<Z\225\027\277\362WZ\274\221F\342\274\303Od\276>\037\225=a\356Y=3U\037\276\362\273Y\276y\250\203>\324\223\302\275\271\230\314=\256\310\342\275\r@\254\274\024\024\246;m\252m\274\216b\213=\200Q\306\276\266DY>\035\220\261=\333y}\275n!\212\275\363\241\232\275D\014\200?9C\227=1B%\276\334\252\360\275*\375\332\275\027(\337\274W E>\026G\273\276o]X=\324\365a>VjG>\037y3\276\026\205\256=\222B\223\275\347[\200>3\035\033\275\032\272\206>,\'?>Q\342\274\275\365\273Z\276${c\276s/\272\275o\267\202\274\227\037\021>o9\247\275\332)\237=\2745c>\2246\226>b<\353\276\220\265\203=a\320\203\276\321\312$\276M<\200\276\227j\017\276\350\335C?ZFM\300\033\242\320=]\033\346\275\212\335\206>\001^\332\276\251?\226\275\327lS>(\326\265>2\224\335\275\350\230\261\276\355\242\326\274\342i\"\275\327\272Q>\034\200$>VG\316=\357\362\000?N7\264>\254^P=\227\216\364\275\304_\345\276\0303\345\275\204<\206>ti\206\274L\307\212?\026\346\301>\221l\236>\204\272H=\231A\223\276}@\021>\326\226_?\266\375q;$t\211\276\370\337\361<}\271\207\276\257c\036\276$\004\247=\235 *\277\375\256\267>\360a\326<K\253\202?\265N\213\275L\371\365\274\200_O\275\274\332\206>\360\325\027>\365\025\017\276*N\271>p5\363\275W\245\236<8\'\372\275\231\001\217\277\024IG=\276\235\211\277\367\350\016>f \212<b\024S\275e\233\230=\213#\253\277\360\024\345>\351B\010?\317\322\252\2762v\022>\007UJ=\250!\032?V\253\251\2771\314\237\275:S\\>\245\3131>z{\247\276V\241.=\265\205\343>\313\037\355\276\025\221\024=\353{O=\366\371\020=,\317\030>\021\322\255\275\317\373\001\276,\030\241>\336^\353;!\276\232>Q\243\243=;\375\021>}L\360> \260\t\277\3004\356\275\271\244\213\275\332\266\306\276\263`\307>)\014)>\313\023$\276\237[\351\276\0057\016\2757\023\214?S\375-\277J\257Y>P\326\374\275F\303\356\276\313\355\010>7O\177\276\371\277\302\276C\347L>A\3576\275\342\\}?\361!\333\275\233\264\231\277\320\005\360\275\026\372;?s\014\271\2754\022\316=G(\315><\332\232\276S!\032\276\373a\226>Fj\r\277\3321(\276y!d\276\215\323\233<?\004\274=|\371\223>\035\207i\276(\362i\277\020\374\210\276\350q\245=\'\210\370>\264\337\202=P\267+\276\010\265$\276\337n^?Q\301o\276e\307a\275\360\215$>\255b\004\276\364:\036>;\316\211>A\'\227\276\334\243\367\275\273\022\202>\036\373\224=\277r\206>\032\344\245\275\373\363Y\276\354\024F>\237\322N\276\242\222\201\274\013\255\203>\341\224\274\274\366\261z\2763;=\276\331_{\276I\365m>\254\321\022=\030\202B>e>\201>\256\254\027\276\261\321\256\276]\212\221\275V\346\217=\030\244\367\275\256\265\244>Q\177\\>\324\003\327\276\261j\224>\206@\n>\346\275\354\276\307\205\231>[\345\214\276\356\231\350=\027\256\003\277\252\253\376\274}\235\226>KE\217\275\241;\205\274\027\365\020\276\336\r\360<M[`>u\312\n=\323;\336<\342\246\016\274\331\233_\276\025\304\034>qIm\275\264\354\313= c\256=\357\005\237>\21718>J|(>\t\350U\276\261\354\231\276\024\256m\274\313\200\243<\261l\370=\250\334M\275\"r\324=\\\031#=\016\256M>\246<\205\276!\357\216>{=\254=N\327\264\276C\351\201>\'\303>\276\310\010\005>G\316\232>\031p\365\275\267\021q<\362\\\351\274\277\261b>\310\277\232=\004\245u\275\223\235\354\275i%\255\276\000\276:\276\271c\301=1f8>\005\315\022\276b\305\321>\302\347(?\305\250\026\276z\313\332\275\257\252\026\276\'\373\001=\313\177\331\275ia\205=\315\232\224=&me\276\230z,\276gz^\276\275\322\273\274.S\373<\2569@\2766\255&>U3l\276\016V\217\276z\016Q=Pb\233>\346\307^\276\266A\210\274k(\027\276\234\002+\276\335\3115>m\230E>\273\037E>\014\246\027>\202\017\272>\336\375\322>\033\313h>r\333t>}S\035\274\242\301!=\206\233/=2z\004>\326\3441=\303\203T\275\014\237\030\276\203<(=fF\276\276\336\334\361\275Y\373\351=\177\351\240\276QB\201>\207\031L\276LVf\275\224A\320\276\n\021\222\276\354/5>\272\2721=\375\267e>s\340\233\275\341\352\373\275\220\300\210\276n\3172\276U\362\274\274\200}\001?\250\331\026\274\377\3163\276\265\0333\275\250\243c\2757\203T\276\250\004\342\276\371aK\276\362\213d\276!\031V\276\223;#\276E>\305\276x\2464\276\252\010\024\272\37761;j\022j\274\337V?<\313h\027\274\234\373\374:\256\370v\276i\371\204\276+4\306=.p\336\275\336\312\375=\201\274\020\277vu\007\276\246;\265\276Z\270E\276e\276n<\301\315B\276c\217\005\275f\273+\275\246\315S\274/\033\337\275\304\037>>\323/\247>\355b\210\276\314tX\276\212\347\313\275,\216\307>\215\326O\276l\235K>\366Y\251>\231C\246\275\0149%>=\321R\274\315T\206<7\271\317=4X\314=N\277\354=\216\226\275\274\321m\260\2756\366$>\254\212\215\275\013\231\231=\321\252\377=\3075K=\307i\010\276\266\223\377\275u\374\031\276\376k\263=(x\336\275\022\341\231>\205\233\037=\242\017\364\274\352\332\322:\025\275\221\275N\201J\275\213\331\016\275\250{\225>\373\327\224\276\017@\305=\022\005\206><K;\276,\035b\276\014\033I\276F\215(?\212|\213=\020\t\276\275_\267\037\275\231>\211>B\341\221\276\014W\336\275G7A\276/\025\034=\212\223\360<\266\310\034\276-\326K\276\321\352\244\276\317\276\023\276\254M\270=\212\322\307\276\316\000\326\275\032\326\301\276\353\252\256\275\330u\002<B\206\013\276\314\260\256>\223\237\221\274\177z\370=\340\372\030>(\310j\274\003\234<<\245\335\305=xM\333\274G\264\223\274\247B\301>\373\026\243>N\254\250=-\275;\276\013\241\273<\261:\246>\326\201c\275*\243\227<\361a\377\2750\n\211>\027\007\267>\340\226\345\274MX]\276\'\266\357=AIC=\340R\215\275Gj\354\274c\201\346;s\343k>\002\206\335\276\204\220\003\276\001\341\224\276\300\036\231=\261\210\300=\347z\'=\221A\351=v\007\004>J\032O\276\335L \277{\032\345>\331\234\001=>\244\244=Y\364\031<>\270)\276~\003$<\033^f>0{\007=\342\006S\276\212\352+=\341s\306>\2726/\275\312aV\276\275x\236\275M\356w=i\n\266\274sg\013<\302\016\'?\032\343\217\276\341!W<\242y?\276Q>\020>\023=L>^E\261\276\371\366\003?`\\\230>\266E\353=[J\\>[[k\275\343\243g\273#!\333>\242\337\217>$\212\\?:z+\277\032)n?y\250\222>\327((\277\013\247\253=h\367L<c\211\372\275\363\2055\277SU\264\275\237|\215\275\003g\337>W%\027\277\334 (?hi\337>E\373\017?+=D?T<\330\2761\004d\276\223\025&\275\0146\361\273\n\240\244<\300\353\014><j7?\355\237\224\271\235.\306\275 Y~\275z\030r\277b\232\"\276`\326\357<\263\370\304\275\342\327\\\277\r\301G?\335\354E\276q\367\257\276Z\251\343\276\025\024\220=\275I\001?\215\256\220\277\013\266r?\252$\352\275P\0268\277\n%\002\277\n\230E\276d\371\275>G\367t?\226\240\301>\372\266i?T\345r\277\206\322:\2770\264\321=y\355\326\276\273B\017\277\366\307\266\271\003;\020\277\303\244\r?\301\035\010?C\n\272=\235\020\032?\2461\321=\3613\021>\005 ,?\021K2?\371\304^\277\235\327\203>1\251\221\275\253\214!\276=m(>\3307\334=\344F\030>\333\0008>q\206\n<\355\366\262\276\272\303V<\t\334*=cp\351<t\351O=\347_5?\032If=\254r\336\276\263\362\246\276\377\274I>\270J\247=\374b\220\276\023\364\300\274_ \270\271@<\245=\032\240\225>4\216\371=\315`\351\275\332\267\305=Q\252\323\275j\201\251=)\321\315\275B\0037\276\311\337\336<\316\271\362\276\211V[>|v\337=g\201\231>\231\223\362<\305\270\261=\3073\025=\356\345E\276u\t\'<\274\335\313=\313\314\350\275\372\230\301=\2602\337;`>==~P\217\2757W\357\275\305\034\023>m\036\013\275\221i\206\276\334P\246<\235|\233=\225\203\351\273P7\'\275\347;\006>\271\275\254>^(#\273\203\267$><h}\275\236,\200>\035\352:\276W1G\276\340\242\302\276U\245\267\274\022\247M\277HlB>\320R\303\276\337\255\272\276\362\227\001=\232\311\253\275\317\204A>\260^S\276\024\276\035\276\351\316\312\275\377D\023=\254.$\276\272\2339=\213d`>Pp\035\277\242\031\333=\217\360\302\274\237\212\217=\031\226h>bY#\275\003L\003> \364I>\363\211\214\275~\030\255=v\242\235\275\177j\271={\221\217\275\375\302\202\276\024\2715\276?\237\200>[\271\312\276\313d\260>x\213\r\276\262\347\024>)\327\225\274_\005\'>@\267\200\276\202\266\026\276\316r$>\272~\005\276\210O\246\276\254I\003\276T\027\214\275\307\311\201>K\360Q=\2459\017\275\034wn\275E\261\303\276\247K0\276\224\357\251\275\300\376\273=\252\220\361\273\325\305\323\274\252\317\222=\364\374\013>\321]\337\275\t\221L\276\314M\241=Dd\210\276c\267\340\276\347\303\366=.\036\256\274\274\217\327>\006Z\300\274u\342\225\275\n\232\251>\320\345\202>0\350+=\001\024\">\024\2679\276\324\275\225=\251\267r\275J[#\275\316\305?\276\223\236\272>\315\n\346\275D\245\014=\321\220\227>\365#E=\362\377y\275\341\253\027=\022\202\345\2755^\250=\347\367\007\276\024\325\363\274\312<t=\017\004U=\251\'\016\276{&N>\020\340)<\366\261\250=\301{C\276\235&Y\276\333\273\207\276I\304\254\276C\306\225>z\333:=4;}\276_\352c\276f\206O\276[\363l?\025\235\020\276\266`}<\021zE>9)\026\276\3140Z=\315\345\036\275;\301#\277\351\317\007\275\314d\210\276\0305\002>\326\276\235\276\252[\336\276\226\322\200=\242\037b>A\265\354\276\274\227x\275\007\317\276<\370\217%=Gy\336=\006\330\332=\315\\k\276i\270\224=X\374\001\276<`g\273\016\354\004\276\212\007$>\320\345\033?\207\010\265>W\365\022>\222\364\217=\301a\374\276\3116\311\273\233\001\372;\331\016#?\227\346\262?\353v\303=H\253\350\275ti\301=\265\277K\277\210\341\"\277as\003?\201\365\357>pq\020?T\017\232\277\306\327\250=\300\245\001\277X\241\022>z\300\025\275\333{d\276\303\231\024?\212>|\276Y\351Y\277\2422,>^\036\335\276\371Ij?o\344p\275Af\000?\022Vy\277\256\241\204?.\013\024\2761\3153\277\235\200\272\2763L\n?\241&\"?\315d\003\277I\006N\277\340\232\024=\340\314f=\317\005\370\276\304}\217=p(\347\276a}\267>-\217\274\277^\327\356>\211\215?\276\232\202r\276\202\2110=Jj\225>\211\262\177\275 \360;\276\2142\031>9/m?D&g\276\257o2\277j3\004?\327~\250=c\367<>\307\342D?\326\256\217>\272r\203\275el\036\275\355\375\221\275\026\321$\2757\257\276\276C\355\244\275\013\005S\276\014\020\304<B\357\026\276\375\255\336\275\223~R>\365\234\347\273\366\324\322=\341\303P\276Z\033p\276\201~{\273n\022\302\274oy~\276\223\033\200\273\306\372\317=\375\256\344=\322\370\006=tR\365=\0028\347=\230\367\241\276\024sf\276\271\346\'\276*\253\356<c\370\210>N\332\244\276_D\301\275\304\235)\273\336c#=\036\273*>\"\tc\276b\365f<KW\024<\025T\004>|y\226\276a\266\341:\303_o>\210n\023\276\263\347\266>\213\253\211\275{d\210<q\206\327\273U\311\231>\035\343\222\276\341$7\275\000\034U\276J\240\334>\306\205%\276E\312\242= pv=U\306 >\213\014&;\314\266\360=\256lR>\377J\262>\221(\376=-0q\275x\026\216\276\323\354\377\274\314Z\316\275Dw\317;\204O\227<`\335L>N\272\007\277-YN=\013]<>\304\035\247\274 \255\261\275\344\211F<\r\016\323\275\353\032\233\275\023\322\350=$\250F\275?\264\226=\353^\334=\365\232\362\275\203\252\250\276\273\333]\276\020FF\275\263\306\r>3\321a\275P{\n>\246\262w\276\360\034\336\275oO\265<\224\331\270\276R]\t>\227\"\007\276\217{\320\273\030\372Y\276\260\307\222=\364P\242\275\304\240\336=\001)?=\020\332\000\276\004\255\373=\010#9;\251@\010\276BSY=\357\275?\2760\347\341\275\017\325N\276\316\310\376\274\227f\321=\316\321@\276&\245\226\275\344\334s<n\217\357=\2614(<\367\002R>\233\355A=#\362O=h\'\300=\235\204\221\275%\341\370\273\266\257\241\276\230\374\250={@Y\276\346\307\034>p\177\222\276\366\326\223\275\242\213\252=\240\254\223\276\265\233t\274D\263z\276X\271\003\275\373f\215\275\3166\252\274\025\327\235\275\313\356\275=\322?\014>\323\370\260\275u\005V\276\376n\204>W\211\201=$X\207=b\003R\276\317\364|>\276/\271=\332\021L\276\225\274\212\276Z<\010>\350\rr;\263\357,\276\'5\013<a\017\222=C9\271\276H\226\004\275\254\331]\275%e\034>\270\245\023>G\036\313<;\2066\276\177c\266>\372\0075>\013\267D\274\255\341\362\274\207&\221=\253\207\212\276\243U\344\275\307\007L\276\025\203\036\276\020X\276\275G\006\202=\246\2505>&~\367\275\236R\024\276\201\372\240>\"\246q=x\001\246=X\335h\275DA\205=e\360\324\2746 \231\276\272a\002>\313\006\250<\375X\323\275\261\365&>\353\023g\275\232\251T=\016\273\322\276|m\355;>\3415\276\350\300=\276!\312\354\275\004\265n>(\017\316\275\271\371q>J#\265=\223L\334<\335x\026=\360i\230\275\3235\250\275\253\371e\274\307\244\363=\367e\034\275\006\\0\276\003\030T>\344\224!\2757\263N>Z\234\202=~D\227\276\024c\201\275\364BJ>}e\210\275\000f\262<e\r_==\335!\276\225\256\201\276\252~\206\276ny\373=\322\2750>\2414\372\275\331?\300\275\314\302&\275q\2470\276\013$\n>\2538\235\275\0316y\273\302\2630\276\306\200\030;Y\2175\276\036\256i\275g\027\005>\236\036D\276r\226\025>\214\210\344=\2504\237\275\346bL>\210\030\254\275Y\277d\275hQ/=2Y?>\253\002+=f=s=4\255\222\275\3003\370=\021\025\010\275A\273.\276a0\313\273\325\'\226>\255\001K\275\340kb=\342q\031>\323\351\241\276\204\226\337\275l\253\341<\226\200\200\275\200\013y\275\234\223X\275U\333\342<dgM>\321\204\265=\316t\237>\364\006\231\276-E\001\276$\256v?\006L\001>\272<9=\250\266$=\005\326\013?0\370\274\276\342f%>\234\224\345\274\235\342P>r\350l\276\256\3434=\330?\225\276\022}\331\275\036\253n>\214rU\276\325!\021\276V\231\031\276\342\305\030\276\255r_\276ea\033>\237\250\220=\365\314\357\276\301\013\026\275\365]\007\276P\256$\276)\312\027\276>\346\246\275] \360\275\254Tu\275b\005_\275\350\023>;s)/>g\333\016\276\323\251\032\276\003\262\213\275\240M\200=9\342\254<9}\211>\372e\314\275@]\260>wx%\276\226\201m\275\3443L\277R\263\247=>3\033?\230{\002\275/\307P\276y\352\352=\034\317\353>\224\304^<(Z\304<\"\371\305\275\271\326\n>t\227\301\274!\355T\276\r\271F\277\t\377\200=\211\223\215\276$\021\234>\274\342\235\275\350U\362\276\024\225\222\275\004\270\001\2725x\365\275\363\253W>\000\276\361>\313!\376\274$\240T\276]\316\215>\n\357K\277`\002k\275\360\311\013\276,\024B>;\237\355\275)\021+\276V!\306\276\327V\203\277\263\t\231\275;^+\2768\367<\276\302\315\202?\371\'\027\276J\303A>s1O\276\310\'\002\276\210\027\315\276s\366\244\276\320>\345\2755\324H>\304\035c\271\306\342\014\274\316\363D>\376\024\243>\362\204!\276\210\347*=\202Y\000\277\213-\355>?\327\255\276\260\322_\277\320\325\250>\025\302{=)~A\276\336/\022?K\326\320=\020\215E<4s\230\274\231\273\035\275RH\356\276\037\021\330\276^W\352=\265A\200?\312!\310=\345\035:\275-L\225=\257{\307=\035\273i\276T\323\253>\223\222O>.\235\004@\221=\214\2760\342\211\275\227\267\270\277\341\330C\276\362(\320\276\005\367\350\275q\310\247\276\371=n>\260\310\362>\351r.?\204\201\177= ;X\276b\317\210=\320\244\001\277 \352\314\276\215|\204>\336\024f\274\377n\026=s\340,=\376\010V\275\376\372\263\274\371\255\206\276\331\202|\276]\004\370\276\014d\331=-d\\\276,\366\177\276O\242\206>W\221\177\2769\352\363\276Vv\374\275X)f\276x\244\177\276\270\017\206>3\335\314\275Pf<\274\303cE>\272\252H>\003\261\330\275J;\366\276\332\265l\275\014\231\036?\224\033\357>\236Y\207?d%\325\276@z;\276\253xD>\373@{>\227\370\257>\343\002\330\275\321\252\240>:\3361\276\371\321\232\276\343\237\021\276\241\001(?\020\2570?\270&N\276=+\346>\350\253\216>-\277\023\276\236\375.?\337A\016?\207H\223\276G$\221\276\r\357\251;_\330\020\276q\327\306\275\013\374&\276\027AP\276/C\325\275\306\323\"\277\254\274F\276:\0107?j\275?\276f\375\233<g\312\211=\017\322c\276\0068\235\277\223\302\215\276:z\272=\316\254@\276\341$o\276T\352\220\276\314\017&\277\214\376#=\013\271h\275\211\232\231\276\035\n0?A\240d>9\230R\276\203\007\004>n\230\221\274\331\277\340>$!Q\277a!\013?]\004G?\316\320r>\035}\255>\224~\210\277\265\300\261<\362\r\244>sH\254\276\267K\210\276\222\232\341\276P\247*?\341\332x\277\335\231o?T\266\240?0\200\362=\303\264\027?\234\327\274\275\031+\202\277\302\250\036?\327Q\t>\260\007\n?\rA\347>v$\343\2753\024@>\323M\307\276=K\207\275&\000\210\275\031\243\204\276_+\202>\365\353\001>\351j\366>Co\246\276\250\346\362\276\333\r\222\276\342\274\034?\014<\001>\301x\370=a /\276V=\333>\223y\250?r\000G\276&[;\275\347\030-\276\325u\235\276\340$\216\276HYk\276\357\335\311\274\177\303\207=m\354\200>5\244\373\273\334\370\014>\332\250R>Y\344\001\276\214\200(\274s\"W\276\304\271\036\277\201\240\003>S[\325=\030lE\274\321\025\225<\305\377\020\276\367\367\244\276S\323\221\275\224!\214\276=\215\314=\203g\325\273\033\246\242\276kN\353=\317\310\262=\303\231\214:\177\212\006>\330\021\270<\347\325\206>-z\002=1i\301<\304Y|<K\345\364=\245\323\'\274b\324\213=u?\237>\024S\\>U\360:\276\024\034\310>I\231D=\345\340i<\204Q\361=\223=\250\276\312a\202>*\2654\276\203\330(\276m\257c\276\227\215\021\276\257[\004\276\217\263!\276Q\353#>\241\307`\276\337u\276=\336s_>g\n\337\276\227\215\021\276\365\357\203>\252\346\315=\006\351\230>\342\262q=\351\367\016=.\230\241>\221A\026\277e\006\211\276\241.Y>\211N\345\274\311\340\337\275\341\266)=\253\265f\276\343\335\220\276\305{\027=\301\2441\276\363\367\001>\3317\212>\262N5\276\275\026\'?\236@\376\275X\331\216=\010\234\266=\3325\252\2769h\300\275\254\n\227=\025\325D\276U\2362>(\025?7/)\001=&\314\031=\030X\200>\002n\324>\325\241\374\275kP\006\276]\235g\2742\3735\276\323\261|\274\372\234\024>\207\3376=\233\227\213\275\003*\233\275\367~z>LtB\276\321\243\000>\300\245X=\000\205\331\275\301\n[;|.\242>/\235\310\276-\362E>\022@\036\276\341\265\272>\341C\236\275\260|\360\275\255\225\204<\311\373#>\203\357\351\275/g+>\035\211\302\276\207\243\340\276\2315\203\276\353#\256\275\315\201\264\275\235\007@=\020\324%\276\216\304\263\276\333#\005\276\203<\362\275Nm(\275\022\214\355<0N\250=\3521\250>!S\024>\320\027\257=\376\207\254<\357\254\227=\023H\203\276\315\352\004\276[\256\'>W9\303\275|%\326<2\021\372;\315\006\205\275\266\341\233\275\033/\242\274\225K\217\275\221\234\211>I\360\354\2746\201%\275\376\207\324=\273:\212\275\325\347\007\276\270z\240=\252\315\032\276-\221\025>\002\231\351\275\034wG>\021\2429=4VY=%M\277<\346\2216=7\252\025\276Z\006#\276h\237\177\276\320\234\020\276B\3650\276\324\221\255=\305\311r\276\250\3710>\215U\311=\227\273v=\022\276#\274\334B2>\215\020;>z\333\234=\205\363\301\275\2022v>\213\210L\276\024\327\010\275\274K\221\273\313Y\252\275\036\376\262\275\t\374\233>\\/5=\210s)>\\\270\005>\344\234\032>eV\242\275l|\346<\230\337\026>\231\351\216\275\330\372e=5\267%<\350\350|=\313\225\236>\331c\204>\253\rU\276\255\353\013>\226\340\314=\274#\355\276\350\331\224\275\242\254d\274\313\333\316\275\256\tc\273\006\317\010=g\246h>aW\311<\010\233\270\276{;\221=\262\025\326\274p\243(>\211/c\275\002\205A>\241\345P>5SX>\0223\006\276xb\236>\243s\366= \364\252=\3322O\275\030\324\'=N\264\020>%\253\267\275e\305\315\275\272\267\266\275\204\266z\276\261\353q\276\367C\330\276\346\224\365\275\267\225\030<\204\343\202\2756\321+\275_AL>\375\374B>\243*\034\276\307\236\233\275y\005\220\276\330%\324=\302\257\270=\204\320{\275}E\300\276\002\373\342\274\215\325\213\274\222(\255\275\371\005\327\275\352\356\310\275\207\254M>\321\265\275\275\227\017~<go7>\337f3<t\223f=7\234\274\276\271P\333\276\365\276\232\2755\257F\276\267\200U\2759\3636>\341\276\000=RIi=\357qI\276T\362d\275+B\230\275\224\235C\275\310\236\221<\261\310Y\275\207\254C=\344\006\256<\233\271\300\277\265\302\007\275\212\271\270<p\316\344\275\245\317u\274\223j\323=\306\275\214>\270\224\327\2753\346L\275er\322>\334\332\035\275\00440\275\275\343.\276w\"\n>\267m\242\275\350_\003=\345\227\314<#W\223\275\031\2742\275\210\300\312<\312\307\314\277R\006d>\322\345\226\274\263\277\222>8\217^<\255\3013>\260@%>|TT\276\361\217 =V\035\340=\301\033$\276\377\305\312=]\312=\275\025\273\300=JJ\241\275\001\323\025\276\213\2075\275\277X\340\275\266\247\223=\341\305W>\017\302C\275wh\022=\326\n\022\2769\210\026\277>n\363=\0207\321=_\367\375\273\341\031<>\230\220\374=^\034\314=\032\255X>\304\300\014\276\245n\311\274F\306\343<\344\334\221\275\221\232\344\270\332\224\201=\333\205\240<Gsi\275\312\245\212\274\263Y\243=\375`J>{\307\213\276\020\371\351\275\026f~\277\026\237~\275\345\350\\\276\023\020\264=\211\2478\275\221wr<vdR>6=\377<v\356\250=\342q\006>d\334\335\275\177Z!\276\t\223J=\314\353\353\275\202\266\'>h\277v\276\363\244\326<_\360\352:\023@|\275r\272\207\275\266\243\220\277\377\315\350=+=P\275\353\021\'\275Aq\312\275\013\250\211<\003\224\213=\205 !\276p\244\004\275\342\241\240>I\226\257\274\347b!\276\370/\354<\304\217w\276Ln\200\274\346=\207\272\225@\303\274\034\263\320\275(\320\237\274\242\036i>\225\306\353\275\032\330\213=\325\344\245\276e\247q\277V\242B\276zt6>Y9\3128\232\317\007=\300\212\242\273<#P\275\274\030\255\274pG\215<o\353\220\275\217\212\324\276\322\206_\276E\314\376\275\266:\010\276q\262C\276p\336\025>\346\310\362=x\n\354\275\206\003\007\276\264\254b\276\267{\227\273S9\347\275\303dp=\205\276&\275):\013=\252\301U<\004\244\376\275\254\003\277\274\321\022\215=#,\002\276\304\\J\274\311\343Z>\257\214\335=;\007\017>\365.\"\275M1,>\300}G\275\2068\341=9\262\271=\375<^\276\303A\221\276z\236\020<H\251\220\275B\023\370=>B\036>D\010G\274\347\237.>\027\3054>PSC\276s\337f=HI\">nq\025<Q\336\345=\266\263\036=\013\271S\275d\203\260\275\260t\341=;\345M\274\210\330\255=\335\007\361\275\276\242\211<\364\275C\276\tCU<z\276\001\276Bd]\275)\020\345=\031\270E\274b\300\210\275\027\005\264=\322h\252\275\246\344Z=\013\243C\275A\276\317>\357\305\356\276\247\n\271<\360\323\t?\005\212\214\276\265\310m\276\3320W\275Z3\331>\014\227\221\275\206V\307\2757\225t>\215\222/=\360\367\212=\270\227\361>\360I\003\276\"\214k>=\234\340=\257;\200<\263\315;\276\337a\024\275\354\313\032>\006\010\332\275\333\332\340\275\227\241\022?\022\226p\276\370+I\274\332\200[>\210\370`\275S\253$\276\211\265\'\274\320\2644\275jv\347\275gf\025=\006\r\203>c\376h\276\211\321 \276s%\310\276\271\231\247\273\235\327\034\274\303\014\255\276\036ec>\277Z\t=\0168\032\276WC(\276X\366^\276\211\"\221\276\342W~<\306\270\024>\366X\\>\220<\252\276\252\365\037>\032\211\014>\021\3677\276|\373\007\273\322\346\005\276\024\3032\274\212s\235=\254f\201\274Ba\217=\027\252I\276\016\331\020>\2258+=k\276\312=\276\347y\276\366\002\215\275\036*\261<\355\261U\276\355\227\032>\037\220\264<b\331>\274;\262H>\356\317\321\272A\001\245\276\007k\030\275\334\3645\275b\250W>\243\2437=7\265\227\275oF\323\274l\030\360\276\361\n\006>\362QX\276E\304\215\276=\245\201>\301\351\002\275\272\247\021=\316\345B\275\237I\r\275\350H\201\276\024\366\025\276\2166/\275|l\277<\307\340j<~\222\227\275\345\316/\274E^\253<\024\220!\276\323\230\021?\333\323\342\274\303\363X\276R\211\232\276\330\205M>/\265\311\275Y\032\014>\344\241F\276\275\230r\2745C#>\305\t\254\275l\371i\275\024?\030><\270 \276\362\362\314:\357\272\345;\255\210\333\275\331\314\241\275I\345F\276\003\276\234\275\327\330>>\021t}=\275zw>P \215\276\245\373\362=\231\203\316\275\356\347\030\275V\033\227>A\177\334=\223w\221\275\211\374\206\276p\235\363>/\001\005><\251\333=ZR\233\2746\374\255\276\255I.>D\221\363\275k\210\257>+\355\341\273i.\222\276\363B\325:}\024\335>t\355\347\276\037\207\374?\261\201\232>\257\2734>F\017\274\273\245\332*\273\025\273\233=u\211\345\275\010S(\276\336]\353\276\003I\274>\330\034\265>*\006\346>\330\222\032\276\333\212N>\250\303\333\276\t\013\345\276\251\342,\275\216P\222>o\332Y\277;\3736\276H\030\020>\272?f?i\256\004\277Iw\360<~[\303>\253\357\302\276\3004|:F(\377=\026\207\307\276p\242\360\276\335\210H\276k\242\246\277\261bW>u\271\003\275\214\345\352>\016\374\236\276\214\203\241\275\014\236C\276;f\033?\217\336\310\276r\354\276=\375\235\263>\211\374<=\370\256\221?\216\001e\276\312\212\245>E\000\021\276\342\334\350=\322E\344=,\370\306>\317\354\342>(\177_\276\352z7>\233\245.\276\363\346\010>\275\rQ\275\372\270a\276\357\212\001\275\037Y*>\3503\212\275\365\331/\274XB\317\275\242\376\362\275\274\315\205>\211o0\275&OG>B\265e>\302\370\035=\\\311\334=K+\221\2753\273E\276F\353\326<i\272\257\276\264W\234\273\236\330\327\273g\370\'\275\257\r\370=\271\207t\275!(\223>x\201\202>\353HT>\213B\262\275\026\031\">\307\017\233=V\332\210\275\305\265\303\275\374\202\207> \255\320\275\'\375\\>\364#w=O?\032\276\376DU\276<\260K>\'\333\205\275%\\\342\275\301;\377\275rcb=\220P\233>E}\244\275DuT\275\'e\223\275\373\310\307\274M\267\321\275-\0364>i\264\231<m\304\306\276\242\213>>y\237\252\275\000-\031\276\37116\275\272\322@\276}R\023\276\212\375P\275\200o\236\274M8X<NgU\275\026b\243\276A\214\001>\001\233\216>N\346\203<\351TJ>\\\270\247=\216\212\377\274\321E1>\032\336\314=L\263\211\276\037\302\334\273\022\331\256\27527:\276\236(D>\253\234]>\346\250\363=N\337/;~\t\220\276\t\234\260=#\316\374=&F\323\275\371e\200?$V\312=\263\0248>\364p\371=\267E\377\275\276\031\224\275\346\325V\276j\375\247=%\004\311\274\321B\224\275\260\335\217>)N\341=\312\365Y\276t}&\276\203\007\245\276\376\377A>\210\204;\275\375\351*>$\374\357\275T\302\224\276r\342\210\276\373\302\224\275C\220Z\275\340-\026\275X>\246\275\014\242\211\275}Q\247\276\342\"\251\275\376}6\276\312\351\216=4\277\300\276\017!\001>\200\253h=\255\322j>~1%>6C\251\275\346\213\256>\3440q=\251\345o:yK\317\275\341\235b\276\200L\212>\010\345r\275\364\3210<U\336\261\276@9\037\276\274\230\325=zp\201\275\325s\004\275\252\246D>\272ta<\316\221>\276\234\243\267\275^\311&>w\316\t\274\366\014\006\276\221\261\002=\226\"\237\275];\323\275\316fq>J\010\255\275\322\255\247\274\r@\003\276b\221M\276\317\255\177>~\271\372=\335\030O>\005N\250\274\230\024\231\276\037T\324\275\212\364\346\274\235\314\374\275\360@T=\006\345\347=\353#\005\276\013\244\n\276C\225#>\3275\002=\024\027\033\275\251!\250\275\332L\215\276\214\224\231=R\360\321\275\002\240W\276\016.\"\274\210\303 <\201\237\225\274\"\366\257\275PJ\256=\341Hm\276\255\362#\275\241\231\232:\352\005\263\274u\365\352=\033\265\362\275v*\201\275\357x\216\275;y\250=c\375\325\275\325\323\"\275x\354\023>\021#1\2740*\276\274\331\0301>\324\354j\276l\240\000\276\340#E?\204\002s\275=\226z>\0307\335\275F+\317\276\253f\205<\274_G\273\207S^?\003*\270>z\336 \276Uv\243=\351\330d?\346Lr\277\331\252y?lN\250>{\3105>\2341\312>\275\216\213\277\006\335\027>\t\243=>\340\032\243=\261D\331>W\334\214>\312\306\021?{\004?\277oN\004\277?\0345>\357\221\225\276\322R1\277C@\360\274^\365>\275T9\033\277\321z\273>[1[>\177\'\217?{/\252\276\035\302Z?T\212\260>y\260~\277\204@:\274\201Y\177=\247l\317\27607\035\277\226\250\277=\370\003\225\277D\322\336>B\017\010\277X\250\036?\224\307N\2763/\331>,\302\027\276\371IM?(\302 \277\375A4\274\206\243\303>\350\004\r?\nR\251>\367^\001\277(\210y?^\337\266=<eB\277d0\034?=\242\265>#\2249?-\336\273=\266\346\003=\004E\343\275\023\2638\276\306\234Q\275t\234L>6rp\275}YK=\366h\217\276p%u\275\237w\030\275T\275*=\324\3350=\211\213\004>\245\326\232\275>\343\257=.]\221\276\203h@=.X\241\274\256k7\276\311\347y\276\373\262\255\276\257\324\350\274\002R\313\275\237\212\277=\355\207\275\275\240\216\024\276\030\337\230\274\234Cd>Y\252,\275\363\016\003\276!_M\276O_\001\276\225\326\300=9\034H\276\037\216\002>\324\236#<{\317\000\276\264\373\237\275\264\375\t\276p\021\241\276\326\275)\275\220\205$\276w 